unsigned char g_model[] = {
  0x1c, 0x00, 0x00, 0x00, 0x54, 0x46, 0x4c, 0x33, 0x14, 0x00, 0x20, 0x00,
  0x1c, 0x00, 0x18, 0x00, 0x14, 0x00, 0x10, 0x00, 0x0c, 0x00, 0x00, 0x00,
  0x08, 0x00, 0x04, 0x00, 0x14, 0x00, 0x00, 0x00, 0x1c, 0x00, 0x00, 0x00,
  0x88, 0x00, 0x00, 0x00, 0x08, 0x01, 0x00, 0x00, 0x28, 0x65, 0x00, 0x00,
  0x38, 0x65, 0x00, 0x00, 0x70, 0x75, 0x00, 0x00, 0x03, 0x00, 0x00, 0x00,
  0x01, 0x00, 0x00, 0x00, 0x04, 0x00, 0x00, 0x00, 0xe6, 0x99, 0xff, 0xff,
  0x0c, 0x00, 0x00, 0x00, 0x1c, 0x00, 0x00, 0x00, 0x3c, 0x00, 0x00, 0x00,
  0x0f, 0x00, 0x00, 0x00, 0x73, 0x65, 0x72, 0x76, 0x69, 0x6e, 0x67, 0x5f,
  0x64, 0x65, 0x66, 0x61, 0x75, 0x6c, 0x74, 0x00, 0x01, 0x00, 0x00, 0x00,
  0x04, 0x00, 0x00, 0x00, 0x6c, 0xff, 0xff, 0xff, 0x11, 0x00, 0x00, 0x00,
  0x04, 0x00, 0x00, 0x00, 0x08, 0x00, 0x00, 0x00, 0x6f, 0x75, 0x74, 0x70,
  0x75, 0x74, 0x5f, 0x30, 0x00, 0x00, 0x00, 0x00, 0x01, 0x00, 0x00, 0x00,
  0x04, 0x00, 0x00, 0x00, 0x62, 0x9b, 0xff, 0xff, 0x04, 0x00, 0x00, 0x00,
  0x0b, 0x00, 0x00, 0x00, 0x69, 0x6e, 0x70, 0x75, 0x74, 0x5f, 0x6c, 0x61,
  0x79, 0x65, 0x72, 0x00, 0x03, 0x00, 0x00, 0x00, 0x5c, 0x00, 0x00, 0x00,
  0x2c, 0x00, 0x00, 0x00, 0x04, 0x00, 0x00, 0x00, 0xb8, 0xff, 0xff, 0xff,
  0x15, 0x00, 0x00, 0x00, 0x04, 0x00, 0x00, 0x00, 0x13, 0x00, 0x00, 0x00,
  0x43, 0x4f, 0x4e, 0x56, 0x45, 0x52, 0x53, 0x49, 0x4f, 0x4e, 0x5f, 0x4d,
  0x45, 0x54, 0x41, 0x44, 0x41, 0x54, 0x41, 0x00, 0xdc, 0xff, 0xff, 0xff,
  0x14, 0x00, 0x00, 0x00, 0x04, 0x00, 0x00, 0x00, 0x13, 0x00, 0x00, 0x00,
  0x6d, 0x69, 0x6e, 0x5f, 0x72, 0x75, 0x6e, 0x74, 0x69, 0x6d, 0x65, 0x5f,
  0x76, 0x65, 0x72, 0x73, 0x69, 0x6f, 0x6e, 0x00, 0x08, 0x00, 0x0c, 0x00,
  0x08, 0x00, 0x04, 0x00, 0x08, 0x00, 0x00, 0x00, 0x13, 0x00, 0x00, 0x00,
  0x04, 0x00, 0x00, 0x00, 0x13, 0x00, 0x00, 0x00, 0x6d, 0x69, 0x6e, 0x5f,
  0x72, 0x75, 0x6e, 0x74, 0x69, 0x6d, 0x65, 0x5f, 0x76, 0x65, 0x72, 0x73,
  0x69, 0x6f, 0x6e, 0x00, 0x16, 0x00, 0x00, 0x00, 0x1c, 0x64, 0x00, 0x00,
  0x14, 0x64, 0x00, 0x00, 0xfc, 0x63, 0x00, 0x00, 0xe0, 0x63, 0x00, 0x00,
  0xa8, 0x63, 0x00, 0x00, 0xf8, 0x62, 0x00, 0x00, 0x08, 0x02, 0x00, 0x00,
  0xe8, 0x01, 0x00, 0x00, 0x48, 0x01, 0x00, 0x00, 0x28, 0x01, 0x00, 0x00,
  0xf4, 0x00, 0x00, 0x00, 0xec, 0x00, 0x00, 0x00, 0xe4, 0x00, 0x00, 0x00,
  0xdc, 0x00, 0x00, 0x00, 0xd4, 0x00, 0x00, 0x00, 0xcc, 0x00, 0x00, 0x00,
  0xc4, 0x00, 0x00, 0x00, 0xbc, 0x00, 0x00, 0x00, 0xb4, 0x00, 0x00, 0x00,
  0x94, 0x00, 0x00, 0x00, 0x74, 0x00, 0x00, 0x00, 0x04, 0x00, 0x00, 0x00,
  0x5a, 0x9c, 0xff, 0xff, 0x04, 0x00, 0x00, 0x00, 0x60, 0x00, 0x00, 0x00,
  0x0c, 0x00, 0x00, 0x00, 0x08, 0x00, 0x0e, 0x00, 0x08, 0x00, 0x04, 0x00,
  0x08, 0x00, 0x00, 0x00, 0x10, 0x00, 0x00, 0x00, 0x28, 0x00, 0x00, 0x00,
  0x00, 0x00, 0x06, 0x00, 0x08, 0x00, 0x04, 0x00, 0x06, 0x00, 0x00, 0x00,
  0x04, 0x00, 0x00, 0x00, 0x01, 0x00, 0x00, 0x00, 0xeb, 0x03, 0x00, 0x00,
  0x0c, 0x00, 0x18, 0x00, 0x14, 0x00, 0x10, 0x00, 0x0c, 0x00, 0x04, 0x00,
  0x0c, 0x00, 0x00, 0x00, 0xf7, 0x75, 0x14, 0x70, 0x7d, 0x96, 0x91, 0xd0,
  0x02, 0x00, 0x00, 0x00, 0x02, 0x00, 0x00, 0x00, 0x04, 0x00, 0x00, 0x00,
  0x06, 0x00, 0x00, 0x00, 0x32, 0x2e, 0x31, 0x39, 0x2e, 0x30, 0x00, 0x00,
  0xc6, 0x9c, 0xff, 0xff, 0x04, 0x00, 0x00, 0x00, 0x10, 0x00, 0x00, 0x00,
  0x00, 0x00, 0x00, 0x00, 0x00, 0x00, 0x00, 0x00, 0x00, 0x00, 0x00, 0x00,
  0x00, 0x00, 0x00, 0x00, 0xe2, 0x9c, 0xff, 0xff, 0x04, 0x00, 0x00, 0x00,
  0x10, 0x00, 0x00, 0x00, 0x31, 0x2e, 0x31, 0x34, 0x2e, 0x30, 0x00, 0x00,
  0x00, 0x00, 0x00, 0x00, 0x00, 0x00, 0x00, 0x00, 0x64, 0x8d, 0xff, 0xff,
  0x68, 0x8d, 0xff, 0xff, 0x6c, 0x8d, 0xff, 0xff, 0x70, 0x8d, 0xff, 0xff,
  0x74, 0x8d, 0xff, 0xff, 0x78, 0x8d, 0xff, 0xff, 0x7c, 0x8d, 0xff, 0xff,
  0x80, 0x8d, 0xff, 0xff, 0x1e, 0x9d, 0xff, 0xff, 0x04, 0x00, 0x00, 0x00,
  0x24, 0x00, 0x00, 0x00, 0xf9, 0x1b, 0x9a, 0x3f, 0x5e, 0x81, 0x42, 0x74,
  0x95, 0x81, 0x37, 0xf0, 0xb0, 0x6a, 0xf3, 0xc0, 0x72, 0x03, 0x61, 0xd6,
  0x81, 0x6e, 0xc1, 0xac, 0x41, 0xe9, 0xa7, 0x0a, 0xd1, 0x81, 0xfd, 0xd2,
  0x85, 0x20, 0xef, 0x9a, 0x4e, 0x9d, 0xff, 0xff, 0x04, 0x00, 0x00, 0x00,
  0x10, 0x00, 0x00, 0x00, 0x26, 0xf3, 0xff, 0xff, 0x60, 0x0f, 0x00, 0x00,
  0xc6, 0xc0, 0xff, 0xff, 0x66, 0xf2, 0xff, 0xff, 0x6a, 0x9d, 0xff, 0xff,
  0x04, 0x00, 0x00, 0x00, 0x90, 0x00, 0x00, 0x00, 0x0a, 0x7d, 0x2b, 0x75,
  0xfa, 0xf6, 0x37, 0x04, 0x07, 0x17, 0x38, 0xe3, 0x3c, 0x51, 0x02, 0x30,
  0x04, 0xdf, 0x4d, 0xdd, 0x0e, 0x1a, 0x36, 0x81, 0x62, 0x44, 0xf9, 0x29,
  0x2f, 0xcf, 0x6c, 0xba, 0x3d, 0x1b, 0x42, 0xb4, 0xd8, 0xfd, 0xdb, 0xd6,
  0x81, 0xd0, 0xe7, 0xc3, 0x42, 0x2e, 0x73, 0x7c, 0xd1, 0xfa, 0xe3, 0xa8,
  0x9a, 0xca, 0xf0, 0xab, 0x23, 0x23, 0x6c, 0x66, 0xc5, 0xfb, 0xe0, 0xdb,
  0xa5, 0xce, 0xee, 0xc2, 0x38, 0x16, 0x7d, 0x78, 0x2e, 0x7f, 0x22, 0xb1,
  0xd0, 0x15, 0xf3, 0xfd, 0xa3, 0xaf, 0x44, 0x2d, 0x58, 0x65, 0x2c, 0xf0,
  0xdb, 0x0e, 0x0f, 0x1d, 0xaa, 0x8d, 0x5e, 0x23, 0x4e, 0x74, 0x33, 0xda,
  0xf3, 0x1b, 0x19, 0xfa, 0xc7, 0x90, 0x57, 0x1a, 0xd8, 0xeb, 0xf2, 0x04,
  0x19, 0x03, 0xd1, 0xdb, 0x96, 0xfe, 0x23, 0x55, 0xea, 0xe1, 0x06, 0xb8,
  0x13, 0xfc, 0xbf, 0xde, 0x81, 0xf6, 0x23, 0x16, 0xea, 0xe0, 0x15, 0x14,
  0x09, 0x20, 0xb1, 0xd5, 0x83, 0xfc, 0x2f, 0x46, 0x06, 0x9e, 0xff, 0xff,
  0x04, 0x00, 0x00, 0x00, 0x10, 0x00, 0x00, 0x00, 0x00, 0xff, 0xff, 0xff,
  0x10, 0xe2, 0xff, 0xff, 0x3f, 0xf4, 0xff, 0xff, 0xff, 0xfe, 0xff, 0xff,
  0x22, 0x9e, 0xff, 0xff, 0x04, 0x00, 0x00, 0x00, 0xe0, 0x60, 0x00, 0x00,
  0x16, 0xfc, 0xb3, 0xe9, 0x02, 0x00, 0xd1, 0xd4, 0x01, 0x03, 0xcd, 0xf6,
  0xfd, 0x03, 0xc8, 0xfe, 0xfe, 0x06, 0xaf, 0x00, 0x04, 0x07, 0xc0, 0xf5,
  0x05, 0x00, 0xf2, 0xd0, 0xfb, 0x06, 0xe4, 0xed, 0x01, 0xfc, 0xdf, 0xec,
  0x00, 0xf5, 0xc5, 0xe6, 0xf8, 0xfb, 0x94, 0xe2, 0x05, 0x01, 0xda, 0xe6,
  0x00, 0x05, 0xeb, 0xfb, 0x03, 0x05, 0xe6, 0x05, 0xfd, 0x07, 0xcc, 0xf8,
  0x21, 0xfa, 0x97, 0xe9, 0x06, 0x00, 0xdd, 0xd5, 0xfa, 0x17, 0xdc, 0xf3,
  0x05, 0x02, 0xd7, 0x05, 0xfe, 0x13, 0xbf, 0xe2, 0xf3, 0xfa, 0xa4, 0x06,
  0x0b, 0xfe, 0xee, 0xdf, 0xf8, 0x00, 0xe2, 0xe1, 0xfb, 0xfe, 0xde, 0xf8,
  0xfe, 0xe6, 0xc5, 0xf2, 0xf4, 0xff, 0xbc, 0xfc, 0x07, 0xfb, 0xec, 0xda,
  0xf6, 0x04, 0xe0, 0x02, 0x01, 0xfb, 0xdd, 0xf9, 0xfd, 0xda, 0xcc, 0xf4,
  0xbd, 0x0c, 0xcc, 0xe5, 0xf0, 0x09, 0xee, 0xdf, 0xe8, 0x0d, 0xe0, 0xf1,
  0xf7, 0x01, 0xef, 0x07, 0xff, 0xc5, 0xd6, 0xfd, 0xcf, 0xfb, 0xc0, 0xca,
  0x12, 0xfa, 0xef, 0xe2, 0x05, 0xfb, 0xe1, 0xf8, 0xcf, 0xf0, 0xdd, 0x06,
  0x05, 0xce, 0xde, 0xef, 0x03, 0x06, 0xc2, 0xe8, 0x09, 0x05, 0xe8, 0xcf,
  0x18, 0xef, 0xbf, 0xf8, 0xf5, 0xf3, 0xd9, 0xf8, 0x02, 0xed, 0xa6, 0xdb,
  0xe3, 0x04, 0x00, 0xe7, 0xf8, 0x03, 0xf2, 0xee, 0x12, 0x04, 0xce, 0x06,
  0x00, 0x0e, 0xef, 0xfa, 0xfb, 0xea, 0xde, 0xf6, 0xc6, 0x03, 0xd6, 0xf9,
  0xf5, 0xfc, 0xe3, 0xd3, 0xf5, 0x03, 0xda, 0xf2, 0xef, 0x09, 0xe6, 0xf7,
  0xf8, 0xfc, 0xce, 0x10, 0xca, 0x21, 0xe9, 0xf8, 0x16, 0x0b, 0xf9, 0xf6,
  0x09, 0x13, 0xe9, 0xef, 0x0d, 0xf1, 0xd6, 0xe4, 0x01, 0xf8, 0xd1, 0xf6,
  0xc9, 0x10, 0xe5, 0x09, 0x1f, 0x05, 0xdc, 0xe1, 0x08, 0x06, 0xdb, 0xf9,
  0x1b, 0xfb, 0xb1, 0xea, 0xf3, 0xed, 0xd6, 0x20, 0x08, 0xfc, 0xee, 0x0c,
  0x13, 0x13, 0xd9, 0xf0, 0x1c, 0x05, 0xd1, 0xfc, 0x0b, 0xd3, 0xdb, 0xf1,
  0xf3, 0xea, 0xd0, 0x00, 0x0c, 0x02, 0xcd, 0x0b, 0x05, 0x06, 0xcf, 0xe5,
  0x2b, 0xf8, 0xc2, 0xe8, 0x0d, 0xf5, 0xb5, 0xee, 0x0c, 0x07, 0xcd, 0xd9,
  0xfa, 0xd8, 0xdb, 0xe6, 0xd9, 0x04, 0xea, 0xfb, 0xf6, 0xe4, 0xc6, 0xd9,
  0xf3, 0xf8, 0xbe, 0xed, 0xf5, 0x07, 0xed, 0x05, 0x0c, 0xdd, 0xdc, 0xe6,
  0xef, 0xfc, 0xfb, 0xf1, 0xfb, 0xdc, 0xac, 0xe2, 0xe0, 0x04, 0xbd, 0xeb,
  0xfb, 0xfb, 0xec, 0xd7, 0x09, 0x0d, 0xef, 0xe6, 0xdd, 0x05, 0xdc, 0xdf,
  0x03, 0xd5, 0xba, 0xf3, 0xde, 0xf9, 0xd4, 0xe7, 0x00, 0xfa, 0xd2, 0xd6,
  0xf9, 0x05, 0xd4, 0xe1, 0xda, 0x06, 0xe9, 0xfc, 0x08, 0xfb, 0xe6, 0xd6,
  0xfb, 0xe1, 0xca, 0xe7, 0xf4, 0xf0, 0xd3, 0xf7, 0x15, 0xe9, 0xcd, 0xfd,
  0xd7, 0xff, 0xeb, 0xea, 0x02, 0xfe, 0xaf, 0xcb, 0xf5, 0xd7, 0xdd, 0xd3,
  0xff, 0xe3, 0xbc, 0xfd, 0x0f, 0xf2, 0xc9, 0xe9, 0xee, 0x0b, 0xe3, 0xe2,
  0x14, 0xe0, 0xc1, 0xfa, 0x00, 0xfd, 0xd7, 0xfb, 0xff, 0xda, 0xbb, 0xf0,
  0x0c, 0xfa, 0xd9, 0xf9, 0x0b, 0x08, 0xed, 0xf5, 0x04, 0xde, 0xe4, 0xd8,
  0x09, 0x18, 0xf2, 0x09, 0xfd, 0xd7, 0xc6, 0xfb, 0x02, 0xf9, 0xc3, 0xe0,
  0xfa, 0x09, 0xec, 0xef, 0x0e, 0xe4, 0xe0, 0xdc, 0x09, 0x15, 0xf5, 0xfa,
  0x0e, 0xdc, 0xcf, 0xf3, 0xf6, 0xfb, 0xb7, 0xea, 0xfc, 0xf9, 0x0a, 0xed,
  0xf6, 0x01, 0xc1, 0xe5, 0x13, 0x09, 0xe7, 0x0a, 0xf9, 0xdb, 0xbb, 0xd9,
  0xfc, 0x18, 0x96, 0xd5, 0x06, 0xf2, 0xdd, 0xea, 0x11, 0xfc, 0xd9, 0xeb,
  0x18, 0x17, 0xf2, 0x0a, 0xee, 0xe4, 0xdb, 0xfe, 0x0f, 0x07, 0xaa, 0xed,
  0x05, 0x03, 0xcf, 0xf9, 0x01, 0x02, 0xef, 0x05, 0x11, 0x1d, 0xeb, 0x01,
  0xf1, 0xe3, 0xb8, 0xe1, 0x07, 0xf0, 0x99, 0xdb, 0xfb, 0xd8, 0xe4, 0x04,
  0xfd, 0x03, 0xbf, 0xe8, 0x10, 0x1b, 0x01, 0x04, 0xec, 0xe0, 0xb0, 0x02,
  0x02, 0xf1, 0x81, 0xe6, 0x01, 0xf4, 0xc9, 0xfb, 0x18, 0x03, 0xe0, 0xe6,
  0xed, 0x13, 0xf2, 0x0d, 0xf1, 0xdd, 0xb9, 0xec, 0xfd, 0xff, 0xdc, 0xf0,
  0x08, 0x03, 0xe3, 0xe0, 0x1e, 0x02, 0xde, 0x01, 0x0d, 0x07, 0xef, 0x1f,
  0x02, 0x01, 0xcf, 0xeb, 0x14, 0x00, 0x92, 0xe2, 0x05, 0xff, 0xd2, 0xf3,
  0x13, 0x04, 0xf5, 0xe8, 0xfc, 0x04, 0xf7, 0x04, 0x00, 0xe5, 0xc0, 0xef,
  0xde, 0xfb, 0xa6, 0xd8, 0xf2, 0x00, 0xde, 0xdb, 0xdc, 0x05, 0xe9, 0xf7,
  0xd5, 0xfd, 0xe3, 0x02, 0xe0, 0xf3, 0xb4, 0xf1, 0x00, 0x00, 0x00, 0x00,
  0x00, 0x00, 0x00, 0x00, 0x00, 0x00, 0x00, 0x00, 0x00, 0x00, 0x00, 0x00,
  0x00, 0x00, 0x00, 0x00, 0x00, 0x00, 0x00, 0x00, 0x00, 0x00, 0x00, 0x00,
  0x00, 0x00, 0x00, 0x00, 0x00, 0x00, 0x00, 0x00, 0x00, 0x00, 0x00, 0x00,
  0x00, 0x00, 0x00, 0x00, 0x00, 0x00, 0x00, 0x00, 0x00, 0x00, 0x00, 0x00,
  0x00, 0x00, 0x00, 0x00, 0x00, 0x00, 0x00, 0x00, 0x00, 0x00, 0x00, 0x00,
  0x00, 0x00, 0x00, 0x00, 0x00, 0x00, 0x00, 0x00, 0x00, 0x00, 0x00, 0x00,
  0x00, 0x00, 0x00, 0x00, 0x00, 0x00, 0x00, 0x00, 0x00, 0x00, 0x00, 0x00,
  0x00, 0x00, 0x00, 0x00, 0x00, 0x00, 0x00, 0x00, 0x00, 0x00, 0x00, 0x00,
  0x00, 0x00, 0x00, 0x00, 0x00, 0x00, 0x00, 0x00, 0x00, 0x00, 0x00, 0x00,
  0x00, 0x00, 0x00, 0x00, 0x00, 0x00, 0x00, 0x00, 0x00, 0x00, 0x00, 0x00,
  0x00, 0x00, 0x00, 0x00, 0x00, 0x00, 0x00, 0x00, 0x00, 0x00, 0x00, 0x00,
  0x00, 0x00, 0x00, 0x00, 0x00, 0x00, 0x00, 0x00, 0x00, 0x00, 0x00, 0x00,
  0x00, 0x00, 0x00, 0x00, 0x00, 0x00, 0x00, 0x00, 0x00, 0x00, 0x00, 0x00,
  0x00, 0x00, 0x00, 0x00, 0x00, 0x00, 0x00, 0x00, 0x00, 0x00, 0x00, 0x00,
  0x00, 0x00, 0x00, 0x00, 0x00, 0x00, 0x00, 0x00, 0x00, 0x00, 0x00, 0x00,
  0x00, 0x00, 0x00, 0x00, 0x00, 0x00, 0x00, 0x00, 0x00, 0x00, 0x00, 0x00,
  0x00, 0x00, 0x00, 0x00, 0x00, 0x00, 0x00, 0x00, 0x00, 0x00, 0x00, 0x00,
  0x00, 0x00, 0x00, 0x00, 0x00, 0x00, 0x00, 0x00, 0x00, 0x00, 0x00, 0x00,
  0x00, 0x00, 0x00, 0x00, 0x00, 0x00, 0x00, 0x00, 0x00, 0x00, 0x00, 0x00,
  0x00, 0x00, 0x00, 0x00, 0x00, 0x00, 0x00, 0x00, 0x00, 0x00, 0x00, 0x00,
  0x00, 0x00, 0x00, 0x00, 0x00, 0x00, 0x00, 0x00, 0x00, 0x00, 0x00, 0x00,
  0x00, 0x00, 0x00, 0x00, 0x00, 0x00, 0x00, 0x00, 0x00, 0x00, 0x00, 0x00,
  0x00, 0x00, 0x00, 0x00, 0x00, 0x00, 0x00, 0x00, 0x00, 0x00, 0x00, 0x00,
  0x00, 0x00, 0x00, 0x00, 0x00, 0x00, 0x00, 0x00, 0x00, 0x00, 0x00, 0x00,
  0x00, 0x00, 0x00, 0x00, 0x00, 0x00, 0x00, 0x00, 0x00, 0x00, 0x00, 0x00,
  0x00, 0x00, 0x00, 0x00, 0x00, 0x00, 0x00, 0x00, 0x00, 0x00, 0x00, 0x00,
  0x00, 0x00, 0x00, 0x00, 0x00, 0x00, 0x00, 0x00, 0x00, 0x00, 0x00, 0x00,
  0x00, 0x00, 0x00, 0x00, 0x00, 0x00, 0x00, 0x00, 0x00, 0x00, 0x00, 0x00,
  0x00, 0x00, 0x00, 0x00, 0x00, 0x00, 0x00, 0x00, 0x00, 0x00, 0x00, 0x00,
  0x00, 0x00, 0x00, 0x00, 0x00, 0x00, 0x00, 0x00, 0x00, 0x00, 0x00, 0x00,
  0x00, 0x00, 0x00, 0x00, 0x00, 0x00, 0x00, 0x00, 0x00, 0x00, 0x00, 0x00,
  0x00, 0x00, 0x00, 0x00, 0x00, 0x00, 0x00, 0x00, 0x00, 0x00, 0x00, 0x00,
  0x00, 0x00, 0x00, 0x00, 0x00, 0x00, 0x00, 0x00, 0x00, 0x00, 0x00, 0x00,
  0x00, 0x00, 0x00, 0x00, 0x00, 0x00, 0x00, 0x00, 0x00, 0x00, 0x00, 0x00,
  0x00, 0x00, 0x00, 0x00, 0x00, 0x00, 0x00, 0x00, 0x00, 0x00, 0x00, 0x00,
  0x00, 0x00, 0x00, 0x00, 0x00, 0x00, 0x00, 0x00, 0x00, 0x00, 0x00, 0x00,
  0x00, 0x00, 0x00, 0x00, 0x00, 0x00, 0x00, 0x00, 0x00, 0x00, 0x00, 0x00,
  0x00, 0x00, 0x00, 0x00, 0x00, 0x00, 0x00, 0x00, 0x00, 0x00, 0x00, 0x00,
  0x00, 0x00, 0x00, 0x00, 0x00, 0x00, 0x00, 0x00, 0x00, 0x00, 0x00, 0x00,
  0x00, 0x00, 0x00, 0x00, 0x00, 0x00, 0x00, 0x00, 0x00, 0x00, 0x00, 0x00,
  0x00, 0x00, 0x00, 0x00, 0x00, 0x00, 0x00, 0x00, 0x00, 0x00, 0x00, 0x00,
  0x00, 0x00, 0x00, 0x00, 0x00, 0x00, 0x00, 0x00, 0x00, 0x00, 0x00, 0x00,
  0x00, 0x00, 0x00, 0x00, 0x00, 0x00, 0x00, 0x00, 0x00, 0x00, 0x00, 0x00,
  0x00, 0x00, 0x00, 0x00, 0x00, 0x00, 0x00, 0x00, 0x00, 0x00, 0x00, 0x00,
  0x00, 0x00, 0x00, 0x00, 0x00, 0x00, 0x00, 0x00, 0x00, 0x00, 0x00, 0x00,
  0x00, 0x00, 0x00, 0x00, 0x00, 0x00, 0x00, 0x00, 0x00, 0x00, 0x00, 0x00,
  0x00, 0x00, 0x00, 0x00, 0x00, 0x00, 0x00, 0x00, 0x00, 0x00, 0x00, 0x00,
  0x00, 0x00, 0x00, 0x00, 0x00, 0x00, 0x00, 0x00, 0x00, 0x00, 0x00, 0x00,
  0x00, 0x00, 0x00, 0x00, 0x00, 0x00, 0x00, 0x00, 0x00, 0x00, 0x00, 0x00,
  0x00, 0x00, 0x00, 0x00, 0x00, 0x00, 0x00, 0x00, 0x00, 0x00, 0x00, 0x00,
  0x00, 0x00, 0x00, 0x00, 0x00, 0x00, 0x00, 0x00, 0x00, 0x00, 0x00, 0x00,
  0x00, 0x00, 0x00, 0x00, 0x00, 0x00, 0x00, 0x00, 0x00, 0x00, 0x00, 0x00,
  0x00, 0x00, 0x00, 0x00, 0x00, 0x00, 0x00, 0x00, 0x00, 0x00, 0x00, 0x00,
  0x00, 0x00, 0x00, 0x00, 0x00, 0x00, 0x00, 0x00, 0x00, 0x00, 0x00, 0x00,
  0x00, 0x00, 0x00, 0x00, 0x00, 0x00, 0x00, 0x00, 0x00, 0x00, 0x00, 0x00,
  0x00, 0x00, 0x00, 0x00, 0x00, 0x00, 0x00, 0x00, 0x00, 0x00, 0x00, 0x00,
  0x00, 0x00, 0x00, 0x00, 0x00, 0x00, 0x00, 0x00, 0x00, 0x00, 0x00, 0x00,
  0x00, 0x00, 0x00, 0x00, 0x00, 0x00, 0x00, 0x00, 0x00, 0x00, 0x00, 0x00,
  0x00, 0x00, 0x00, 0x00, 0x00, 0x00, 0x00, 0x00, 0x00, 0x00, 0x00, 0x00,
  0x00, 0x00, 0x00, 0x00, 0x00, 0x00, 0x00, 0x00, 0x00, 0x00, 0x00, 0x00,
  0x00, 0x00, 0x00, 0x00, 0x00, 0x00, 0x00, 0x00, 0x00, 0x00, 0x00, 0x00,
  0x00, 0x00, 0x00, 0x00, 0x00, 0x00, 0x00, 0x00, 0x00, 0x00, 0x00, 0x00,
  0x00, 0x00, 0x00, 0x00, 0x00, 0x00, 0x00, 0x00, 0x00, 0x00, 0x00, 0x00,
  0x00, 0x00, 0x00, 0x00, 0x00, 0x00, 0x00, 0x00, 0x00, 0x00, 0x00, 0x00,
  0x00, 0x00, 0x00, 0x00, 0x00, 0x00, 0x00, 0x00, 0x00, 0x00, 0x00, 0x00,
  0x00, 0x00, 0x00, 0x00, 0x00, 0x00, 0x00, 0x00, 0x00, 0x00, 0x00, 0x00,
  0x00, 0x00, 0x00, 0x00, 0x00, 0x00, 0x00, 0x00, 0x00, 0x00, 0x00, 0x00,
  0x00, 0x00, 0x00, 0x00, 0x00, 0x00, 0x00, 0x00, 0x00, 0x00, 0x00, 0x00,
  0x00, 0x00, 0x00, 0x00, 0x00, 0x00, 0x00, 0x00, 0x00, 0x00, 0x00, 0x00,
  0x00, 0x00, 0x00, 0x00, 0x00, 0x00, 0x00, 0x00, 0x00, 0x00, 0x00, 0x00,
  0x00, 0x00, 0x00, 0x00, 0x00, 0x00, 0x00, 0x00, 0x00, 0x00, 0x00, 0x00,
  0x00, 0x00, 0x00, 0x00, 0x00, 0x00, 0x00, 0x00, 0x00, 0x00, 0x00, 0x00,
  0x00, 0x00, 0x00, 0x00, 0x00, 0x00, 0x00, 0x00, 0x00, 0x00, 0x00, 0x00,
  0x00, 0x00, 0x00, 0x00, 0x00, 0x00, 0x00, 0x00, 0x00, 0x00, 0x00, 0x00,
  0x00, 0x00, 0x00, 0x00, 0x00, 0x00, 0x00, 0x00, 0x00, 0x00, 0x00, 0x00,
  0x00, 0x00, 0x00, 0x00, 0x00, 0x00, 0x00, 0x00, 0x00, 0x00, 0x00, 0x00,
  0x00, 0x00, 0x00, 0x00, 0x00, 0x00, 0x00, 0x00, 0x00, 0x00, 0x00, 0x00,
  0x00, 0x00, 0x00, 0x00, 0x00, 0x00, 0x00, 0x00, 0x00, 0x00, 0x00, 0x00,
  0x00, 0x00, 0x00, 0x00, 0x00, 0x00, 0x00, 0x00, 0x00, 0x00, 0x00, 0x00,
  0x00, 0x00, 0x00, 0x00, 0x00, 0x00, 0x00, 0x00, 0x00, 0x00, 0x00, 0x00,
  0x00, 0x00, 0x00, 0x00, 0x00, 0x00, 0x00, 0x00, 0x00, 0x00, 0x00, 0x00,
  0x00, 0x00, 0x00, 0x00, 0x00, 0x00, 0x00, 0x00, 0x00, 0x00, 0x00, 0x00,
  0x00, 0x00, 0x00, 0x00, 0x00, 0x00, 0x00, 0x00, 0x00, 0x00, 0x00, 0x00,
  0x00, 0x00, 0x00, 0x00, 0x00, 0x00, 0x00, 0x00, 0x00, 0x00, 0x00, 0x00,
  0x00, 0x00, 0x00, 0x00, 0x00, 0x00, 0x00, 0x00, 0x00, 0x00, 0x00, 0x00,
  0x00, 0x00, 0x00, 0x00, 0x00, 0x00, 0x00, 0x00, 0x00, 0x00, 0x00, 0x00,
  0x00, 0x00, 0x00, 0x00, 0x00, 0x00, 0x00, 0x00, 0x00, 0x00, 0x00, 0x00,
  0x00, 0x00, 0x00, 0x00, 0x00, 0x00, 0x00, 0x00, 0x00, 0x00, 0x00, 0x00,
  0x00, 0x00, 0x00, 0x00, 0x00, 0x00, 0x00, 0x00, 0x00, 0x00, 0x00, 0x00,
  0x00, 0x00, 0x00, 0x00, 0x00, 0x00, 0x00, 0x00, 0x00, 0x00, 0x00, 0x00,
  0x00, 0x00, 0x00, 0x00, 0x00, 0x00, 0x00, 0x00, 0x00, 0x00, 0x00, 0x00,
  0x00, 0x00, 0x00, 0x00, 0x00, 0x00, 0x00, 0x00, 0x00, 0x00, 0x00, 0x00,
  0x00, 0x00, 0x00, 0x00, 0x00, 0x00, 0x00, 0x00, 0x00, 0x00, 0x00, 0x00,
  0x00, 0x00, 0x00, 0x00, 0x00, 0x00, 0x00, 0x00, 0x00, 0x00, 0x00, 0x00,
  0x00, 0x00, 0x00, 0x00, 0x00, 0x00, 0x00, 0x00, 0x00, 0x00, 0x00, 0x00,
  0x00, 0x00, 0x00, 0x00, 0x00, 0x00, 0x00, 0x00, 0x00, 0x00, 0x00, 0x00,
  0x00, 0x00, 0x00, 0x00, 0x00, 0x00, 0x00, 0x00, 0x00, 0x00, 0x00, 0x00,
  0x00, 0x00, 0x00, 0x00, 0x00, 0x00, 0x00, 0x00, 0x00, 0x00, 0x00, 0x00,
  0x00, 0x00, 0x00, 0x00, 0x00, 0x00, 0x00, 0x00, 0x00, 0x00, 0x00, 0x00,
  0x00, 0x00, 0x00, 0x00, 0x00, 0x00, 0x00, 0x00, 0x00, 0x00, 0x00, 0x00,
  0x00, 0x00, 0x00, 0x00, 0x00, 0x00, 0x00, 0x00, 0x00, 0x00, 0x00, 0x00,
  0x00, 0x00, 0x00, 0x00, 0x00, 0x00, 0x00, 0x00, 0x00, 0x00, 0x00, 0x00,
  0x00, 0x00, 0x00, 0x00, 0x00, 0x00, 0x00, 0x00, 0x00, 0x00, 0x00, 0x00,
  0x00, 0x00, 0x00, 0x00, 0x00, 0x00, 0x00, 0x00, 0x00, 0x00, 0x00, 0x00,
  0x00, 0x00, 0x00, 0x00, 0x00, 0x00, 0x00, 0x00, 0x00, 0x00, 0x00, 0x00,
  0x00, 0x00, 0x00, 0x00, 0x00, 0x00, 0x00, 0x00, 0x00, 0x00, 0x00, 0x00,
  0x00, 0x00, 0x00, 0x00, 0x00, 0x00, 0x00, 0x00, 0x00, 0x00, 0x00, 0x00,
  0x00, 0x00, 0x00, 0x00, 0x00, 0x00, 0x00, 0x00, 0x00, 0x00, 0x00, 0x00,
  0x00, 0x00, 0x00, 0x00, 0x00, 0x00, 0x00, 0x00, 0x00, 0x00, 0x00, 0x00,
  0x00, 0x00, 0x00, 0x00, 0x00, 0x00, 0x00, 0x00, 0x00, 0x00, 0x00, 0x00,
  0x00, 0x00, 0x00, 0x00, 0x00, 0x00, 0x00, 0x00, 0x00, 0x00, 0x00, 0x00,
  0x00, 0x00, 0x00, 0x00, 0x00, 0x00, 0x00, 0x00, 0x00, 0x00, 0x00, 0x00,
  0x00, 0x00, 0x00, 0x00, 0x00, 0x00, 0x00, 0x00, 0x00, 0x00, 0x00, 0x00,
  0x00, 0x00, 0x00, 0x00, 0x00, 0x00, 0x00, 0x00, 0x00, 0x00, 0x00, 0x00,
  0x00, 0x00, 0x00, 0x00, 0x00, 0x00, 0x00, 0x00, 0x00, 0x00, 0x00, 0x00,
  0x00, 0x00, 0x00, 0x00, 0x00, 0x00, 0x00, 0x00, 0x00, 0x00, 0x00, 0x00,
  0x00, 0x00, 0x00, 0x00, 0x00, 0x00, 0x00, 0x00, 0x00, 0x00, 0x00, 0x00,
  0x00, 0x00, 0x00, 0x00, 0x00, 0x00, 0x00, 0x00, 0x00, 0x00, 0x00, 0x00,
  0x00, 0x00, 0x00, 0x00, 0x00, 0x00, 0x00, 0x00, 0x00, 0x00, 0x00, 0x00,
  0x00, 0x00, 0x00, 0x00, 0x00, 0x00, 0x00, 0x00, 0x00, 0x00, 0x00, 0x00,
  0x00, 0x00, 0x00, 0x00, 0x00, 0x00, 0x00, 0x00, 0x00, 0x00, 0x00, 0x00,
  0x00, 0x00, 0x00, 0x00, 0x00, 0x00, 0x00, 0x00, 0x00, 0x00, 0x00, 0x00,
  0x00, 0x00, 0x00, 0x00, 0x00, 0x00, 0x00, 0x00, 0x00, 0x00, 0x00, 0x00,
  0x00, 0x00, 0x00, 0x00, 0x00, 0x00, 0x00, 0x00, 0x00, 0x00, 0x00, 0x00,
  0x00, 0x00, 0x00, 0x00, 0x00, 0x00, 0x00, 0x00, 0x00, 0x00, 0x00, 0x00,
  0x00, 0x00, 0x00, 0x00, 0x00, 0x00, 0x00, 0x00, 0x00, 0x00, 0x00, 0x00,
  0x00, 0x00, 0x00, 0x00, 0x00, 0x00, 0x00, 0x00, 0x00, 0x00, 0x00, 0x00,
  0x00, 0x00, 0x00, 0x00, 0x00, 0x00, 0x00, 0x00, 0x00, 0x00, 0x00, 0x00,
  0x00, 0x00, 0x00, 0x00, 0x00, 0x00, 0x00, 0x00, 0x00, 0x00, 0x00, 0x00,
  0x00, 0x00, 0x00, 0x00, 0x00, 0x00, 0x00, 0x00, 0x00, 0x00, 0x00, 0x00,
  0x00, 0x00, 0x00, 0x00, 0x00, 0x00, 0x00, 0x00, 0x00, 0x00, 0x00, 0x00,
  0x00, 0x00, 0x00, 0x00, 0x00, 0x00, 0x00, 0x00, 0x00, 0x00, 0x00, 0x00,
  0x00, 0x00, 0x00, 0x00, 0x00, 0x00, 0x00, 0x00, 0x00, 0x00, 0x00, 0x00,
  0x00, 0x00, 0x00, 0x00, 0x00, 0x00, 0x00, 0x00, 0x00, 0x00, 0x00, 0x00,
  0x00, 0x00, 0x00, 0x00, 0x00, 0x00, 0x00, 0x00, 0x00, 0x00, 0x00, 0x00,
  0x00, 0x00, 0x00, 0x00, 0x00, 0x00, 0x00, 0x00, 0x00, 0x00, 0x00, 0x00,
  0x00, 0x00, 0x00, 0x00, 0x00, 0x00, 0x00, 0x00, 0x00, 0x00, 0x00, 0x00,
  0x00, 0x00, 0x00, 0x00, 0x00, 0x00, 0x00, 0x00, 0x00, 0x00, 0x00, 0x00,
  0x00, 0x00, 0x00, 0x00, 0x00, 0x00, 0x00, 0x00, 0x00, 0x00, 0x00, 0x00,
  0x00, 0x00, 0x00, 0x00, 0x00, 0x00, 0x00, 0x00, 0x00, 0x00, 0x00, 0x00,
  0x00, 0x00, 0x00, 0x00, 0x00, 0x00, 0x00, 0x00, 0x00, 0x00, 0x00, 0x00,
  0x00, 0x00, 0x00, 0x00, 0x00, 0x00, 0x00, 0x00, 0x00, 0x00, 0x00, 0x00,
  0x00, 0x00, 0x00, 0x00, 0x00, 0x00, 0x00, 0x00, 0x00, 0x00, 0x00, 0x00,
  0x00, 0x00, 0x00, 0x00, 0x00, 0x00, 0x00, 0x00, 0x00, 0x00, 0x00, 0x00,
  0x00, 0x00, 0x00, 0x00, 0x00, 0x00, 0x00, 0x00, 0x00, 0x00, 0x00, 0x00,
  0x00, 0x00, 0x00, 0x00, 0x00, 0x00, 0x00, 0x00, 0x00, 0x00, 0x00, 0x00,
  0x00, 0x00, 0x00, 0x00, 0x00, 0x00, 0x00, 0x00, 0x00, 0x00, 0x00, 0x00,
  0x00, 0x00, 0x00, 0x00, 0x00, 0x00, 0x00, 0x00, 0x00, 0x00, 0x00, 0x00,
  0x00, 0x00, 0x00, 0x00, 0x00, 0x00, 0x00, 0x00, 0x00, 0x00, 0x00, 0x00,
  0x00, 0x00, 0x00, 0x00, 0x00, 0x00, 0x00, 0x00, 0x00, 0x00, 0x00, 0x00,
  0x00, 0x00, 0x00, 0x00, 0x00, 0x00, 0x00, 0x00, 0x00, 0x00, 0x00, 0x00,
  0x00, 0x00, 0x00, 0x00, 0x00, 0x00, 0x00, 0x00, 0x00, 0x00, 0x00, 0x00,
  0x00, 0x00, 0x00, 0x00, 0x00, 0x00, 0x00, 0x00, 0x00, 0x00, 0x00, 0x00,
  0x00, 0x00, 0x00, 0x00, 0x00, 0x00, 0x00, 0x00, 0x00, 0x00, 0x00, 0x00,
  0x00, 0x00, 0x00, 0x00, 0x00, 0x00, 0x00, 0x00, 0x00, 0x00, 0x00, 0x00,
  0x00, 0x00, 0x00, 0x00, 0x00, 0x00, 0x00, 0x00, 0x00, 0x00, 0x00, 0x00,
  0x00, 0x00, 0x00, 0x00, 0x00, 0x00, 0x00, 0x00, 0x00, 0x00, 0x00, 0x00,
  0x00, 0x00, 0x00, 0x00, 0x00, 0x00, 0x00, 0x00, 0x00, 0x00, 0x00, 0x00,
  0x00, 0x00, 0x00, 0x00, 0x00, 0x00, 0x00, 0x00, 0x00, 0x00, 0x00, 0x00,
  0x00, 0x00, 0x00, 0x00, 0x00, 0x00, 0x00, 0x00, 0x00, 0x00, 0x00, 0x00,
  0x00, 0x00, 0x00, 0x00, 0x00, 0x00, 0x00, 0x00, 0x00, 0x00, 0x00, 0x00,
  0x00, 0x00, 0x00, 0x00, 0x00, 0x00, 0x00, 0x00, 0x00, 0x00, 0x00, 0x00,
  0x00, 0x00, 0x00, 0x00, 0x00, 0x00, 0x00, 0x00, 0x00, 0x00, 0x00, 0x00,
  0x00, 0x00, 0x00, 0x00, 0x00, 0x00, 0x00, 0x00, 0x00, 0x00, 0x00, 0x00,
  0x00, 0x00, 0x00, 0x00, 0x00, 0x00, 0x00, 0x00, 0x00, 0x00, 0x00, 0x00,
  0x00, 0x00, 0x00, 0x00, 0x00, 0x00, 0x00, 0x00, 0x00, 0x00, 0x00, 0x00,
  0x00, 0x00, 0x00, 0x00, 0x00, 0x00, 0x00, 0x00, 0x00, 0x00, 0x00, 0x00,
  0x00, 0x00, 0x00, 0x00, 0x00, 0x00, 0x00, 0x00, 0x00, 0x00, 0x00, 0x00,
  0x00, 0x00, 0x00, 0x00, 0x00, 0x00, 0x00, 0x00, 0x00, 0x00, 0x00, 0x00,
  0x00, 0x00, 0x00, 0x00, 0x00, 0x00, 0x00, 0x00, 0x00, 0x00, 0x00, 0x00,
  0x00, 0x00, 0x00, 0x00, 0x00, 0x00, 0x00, 0x00, 0x00, 0x00, 0x00, 0x00,
  0x00, 0x00, 0x00, 0x00, 0x00, 0x00, 0x00, 0x00, 0x00, 0x00, 0x00, 0x00,
  0x00, 0x00, 0x00, 0x00, 0x00, 0x00, 0x00, 0x00, 0x00, 0x00, 0x00, 0x00,
  0x00, 0x00, 0x00, 0x00, 0x00, 0x00, 0x00, 0x00, 0x00, 0x00, 0x00, 0x00,
  0x00, 0x00, 0x00, 0x00, 0x00, 0x00, 0x00, 0x00, 0x00, 0x00, 0x00, 0x00,
  0x00, 0x00, 0x00, 0x00, 0x00, 0x00, 0x00, 0x00, 0x00, 0x00, 0x00, 0x00,
  0x00, 0x00, 0x00, 0x00, 0x00, 0x00, 0x00, 0x00, 0x00, 0x00, 0x00, 0x00,
  0x00, 0x00, 0x00, 0x00, 0x00, 0x00, 0x00, 0x00, 0x00, 0x00, 0x00, 0x00,
  0x00, 0x00, 0x00, 0x00, 0x00, 0x00, 0x00, 0x00, 0x00, 0x00, 0x00, 0x00,
  0x00, 0x00, 0x00, 0x00, 0x00, 0x00, 0x00, 0x00, 0x00, 0x00, 0x00, 0x00,
  0x00, 0x00, 0x00, 0x00, 0x00, 0x00, 0x00, 0x00, 0x00, 0x00, 0x00, 0x00,
  0x00, 0x00, 0x00, 0x00, 0x00, 0x00, 0x00, 0x00, 0x00, 0x00, 0x00, 0x00,
  0x00, 0x00, 0x00, 0x00, 0x00, 0x00, 0x00, 0x00, 0x00, 0x00, 0x00, 0x00,
  0x00, 0x00, 0x00, 0x00, 0x00, 0x00, 0x00, 0x00, 0x00, 0x00, 0x00, 0x00,
  0x00, 0x00, 0x00, 0x00, 0x00, 0x00, 0x00, 0x00, 0x00, 0x00, 0x00, 0x00,
  0x00, 0x00, 0x00, 0x00, 0x00, 0x00, 0x00, 0x00, 0x00, 0x00, 0x00, 0x00,
  0x00, 0x00, 0x00, 0x00, 0x00, 0x00, 0x00, 0x00, 0x00, 0x00, 0x00, 0x00,
  0x00, 0x00, 0x00, 0x00, 0x00, 0x00, 0x00, 0x00, 0x00, 0x00, 0x00, 0x00,
  0x00, 0x00, 0x00, 0x00, 0x00, 0x00, 0x00, 0x00, 0x00, 0x00, 0x00, 0x00,
  0x00, 0x00, 0x00, 0x00, 0x00, 0x00, 0x00, 0x00, 0x00, 0x00, 0x00, 0x00,
  0x00, 0x00, 0x00, 0x00, 0x00, 0x00, 0x00, 0x00, 0x00, 0x00, 0x00, 0x00,
  0x00, 0x00, 0x00, 0x00, 0x00, 0x00, 0x00, 0x00, 0x00, 0x00, 0x00, 0x00,
  0x00, 0x00, 0x00, 0x00, 0x00, 0x00, 0x00, 0x00, 0x00, 0x00, 0x00, 0x00,
  0x00, 0x00, 0x00, 0x00, 0x00, 0x00, 0x00, 0x00, 0x00, 0x00, 0x00, 0x00,
  0x00, 0x00, 0x00, 0x00, 0x00, 0x00, 0x00, 0x00, 0x00, 0x00, 0x00, 0x00,
  0x00, 0x00, 0x00, 0x00, 0x00, 0x00, 0x00, 0x00, 0x00, 0x00, 0x00, 0x00,
  0x00, 0x00, 0x00, 0x00, 0x00, 0x00, 0x00, 0x00, 0x00, 0x00, 0x00, 0x00,
  0x00, 0x00, 0x00, 0x00, 0x00, 0x00, 0x00, 0x00, 0x00, 0x00, 0x00, 0x00,
  0x00, 0x00, 0x00, 0x00, 0x00, 0x00, 0x00, 0x00, 0x00, 0x00, 0x00, 0x00,
  0x00, 0x00, 0x00, 0x00, 0x00, 0x00, 0x00, 0x00, 0x00, 0x00, 0x00, 0x00,
  0x00, 0x00, 0x00, 0x00, 0x00, 0x00, 0x00, 0x00, 0x00, 0x00, 0x00, 0x00,
  0x00, 0x00, 0x00, 0x00, 0x00, 0x00, 0x00, 0x00, 0x00, 0x00, 0x00, 0x00,
  0x00, 0x00, 0x00, 0x00, 0x00, 0x00, 0x00, 0x00, 0x00, 0x00, 0x00, 0x00,
  0x00, 0x00, 0x00, 0x00, 0x00, 0x00, 0x00, 0x00, 0x00, 0x00, 0x00, 0x00,
  0x00, 0x00, 0x00, 0x00, 0x00, 0x00, 0x00, 0x00, 0x00, 0x00, 0x00, 0x00,
  0x00, 0x00, 0x00, 0x00, 0x00, 0x00, 0x00, 0x00, 0x00, 0x00, 0x00, 0x00,
  0x00, 0x00, 0x00, 0x00, 0x00, 0x00, 0x00, 0x00, 0x00, 0x00, 0x00, 0x00,
  0x00, 0x00, 0x00, 0x00, 0x00, 0x00, 0x00, 0x00, 0x00, 0x00, 0x00, 0x00,
  0x00, 0x00, 0x00, 0x00, 0x00, 0x00, 0x00, 0x00, 0x00, 0x00, 0x00, 0x00,
  0x00, 0x00, 0x00, 0x00, 0x00, 0x00, 0x00, 0x00, 0x00, 0x00, 0x00, 0x00,
  0x00, 0x00, 0x00, 0x00, 0x00, 0x00, 0x00, 0x00, 0x00, 0x00, 0x00, 0x00,
  0x00, 0x00, 0x00, 0x00, 0x00, 0x00, 0x00, 0x00, 0x00, 0x00, 0x00, 0x00,
  0x00, 0x00, 0x00, 0x00, 0x00, 0x00, 0x00, 0x00, 0x00, 0x00, 0x00, 0x00,
  0x00, 0x00, 0x00, 0x00, 0x00, 0x00, 0x00, 0x00, 0x00, 0x00, 0x00, 0x00,
  0x00, 0x00, 0x00, 0x00, 0x00, 0x00, 0x00, 0x00, 0x00, 0x00, 0x00, 0x00,
  0x00, 0x00, 0x00, 0x00, 0x00, 0x00, 0x00, 0x00, 0x00, 0x00, 0x00, 0x00,
  0x00, 0x00, 0x00, 0x00, 0x00, 0x00, 0x00, 0x00, 0x00, 0x00, 0x00, 0x00,
  0x00, 0x00, 0x00, 0x00, 0x00, 0x00, 0x00, 0x00, 0x00, 0x00, 0x00, 0x00,
  0x00, 0x00, 0x00, 0x00, 0x00, 0x00, 0x00, 0x00, 0x00, 0x00, 0x00, 0x00,
  0x00, 0x00, 0x00, 0x00, 0x00, 0x00, 0x00, 0x00, 0x00, 0x00, 0x00, 0x00,
  0x00, 0x00, 0x00, 0x00, 0x00, 0x00, 0x00, 0x00, 0x00, 0x00, 0x00, 0x00,
  0x00, 0x00, 0x00, 0x00, 0x00, 0x00, 0x00, 0x00, 0x00, 0x00, 0x00, 0x00,
  0x00, 0x00, 0x00, 0x00, 0x00, 0x00, 0x00, 0x00, 0x00, 0x00, 0x00, 0x00,
  0x00, 0x00, 0x00, 0x00, 0x00, 0x00, 0x00, 0x00, 0x00, 0x00, 0x00, 0x00,
  0x00, 0x00, 0x00, 0x00, 0x00, 0x00, 0x00, 0x00, 0x00, 0x00, 0x00, 0x00,
  0x00, 0x00, 0x00, 0x00, 0x00, 0x00, 0x00, 0x00, 0x00, 0x00, 0x00, 0x00,
  0x00, 0x00, 0x00, 0x00, 0x00, 0x00, 0x00, 0x00, 0x00, 0x00, 0x00, 0x00,
  0x00, 0x00, 0x00, 0x00, 0x00, 0x00, 0x00, 0x00, 0x00, 0x00, 0x00, 0x00,
  0x00, 0x00, 0x00, 0x00, 0x00, 0x00, 0x00, 0x00, 0x00, 0x00, 0x00, 0x00,
  0x00, 0x00, 0x00, 0x00, 0x00, 0x00, 0x00, 0x00, 0x00, 0x00, 0x00, 0x00,
  0x00, 0x00, 0x00, 0x00, 0x00, 0x00, 0x00, 0x00, 0x00, 0x00, 0x00, 0x00,
  0x00, 0x00, 0x00, 0x00, 0x00, 0x00, 0x00, 0x00, 0x00, 0x00, 0x00, 0x00,
  0x00, 0x00, 0x00, 0x00, 0x00, 0x00, 0x00, 0x00, 0x00, 0x00, 0x00, 0x00,
  0x00, 0x00, 0x00, 0x00, 0x00, 0x00, 0x00, 0x00, 0x00, 0x00, 0x00, 0x00,
  0x00, 0x00, 0x00, 0x00, 0x00, 0x00, 0x00, 0x00, 0x00, 0x00, 0x00, 0x00,
  0x00, 0x00, 0x00, 0x00, 0x00, 0x00, 0x00, 0x00, 0x00, 0x00, 0x00, 0x00,
  0x00, 0x00, 0x00, 0x00, 0x00, 0x00, 0x00, 0x00, 0x00, 0x00, 0x00, 0x00,
  0x00, 0x00, 0x00, 0x00, 0x00, 0x00, 0x00, 0x00, 0x00, 0x00, 0x00, 0x00,
  0x00, 0x00, 0x00, 0x00, 0x00, 0x00, 0x00, 0x00, 0x00, 0x00, 0x00, 0x00,
  0x00, 0x00, 0x00, 0x00, 0x00, 0x00, 0x00, 0x00, 0x00, 0x00, 0x00, 0x00,
  0x00, 0x00, 0x00, 0x00, 0x00, 0x00, 0x00, 0x00, 0x00, 0x00, 0x00, 0x00,
  0x00, 0x00, 0x00, 0x00, 0x00, 0x00, 0x00, 0x00, 0x00, 0x00, 0x00, 0x00,
  0x00, 0x00, 0x00, 0x00, 0x00, 0x00, 0x00, 0x00, 0x00, 0x00, 0x00, 0x00,
  0x00, 0x00, 0x00, 0x00, 0x00, 0x00, 0x00, 0x00, 0x00, 0x00, 0x00, 0x00,
  0x00, 0x00, 0x00, 0x00, 0x00, 0x00, 0x00, 0x00, 0x00, 0x00, 0x00, 0x00,
  0x00, 0x00, 0x00, 0x00, 0x00, 0x00, 0x00, 0x00, 0x00, 0x00, 0x00, 0x00,
  0x00, 0x00, 0x00, 0x00, 0x00, 0x00, 0x00, 0x00, 0x00, 0x00, 0x00, 0x00,
  0x00, 0x00, 0x00, 0x00, 0x00, 0x00, 0x00, 0x00, 0x00, 0x00, 0x00, 0x00,
  0x00, 0x00, 0x00, 0x00, 0x00, 0x00, 0x00, 0x00, 0x00, 0x00, 0x00, 0x00,
  0x00, 0x00, 0x00, 0x00, 0x00, 0x00, 0x00, 0x00, 0x00, 0x00, 0x00, 0x00,
  0x00, 0x00, 0x00, 0x00, 0x00, 0x00, 0x00, 0x00, 0x00, 0x00, 0x00, 0x00,
  0x00, 0x00, 0x00, 0x00, 0x00, 0x00, 0x00, 0x00, 0x00, 0x00, 0x00, 0x00,
  0x00, 0x00, 0x00, 0x00, 0x00, 0x00, 0x00, 0x00, 0x00, 0x00, 0x00, 0x00,
  0x00, 0x00, 0x00, 0x00, 0x00, 0x00, 0x00, 0x00, 0x00, 0x00, 0x00, 0x00,
  0x00, 0x00, 0x00, 0x00, 0x00, 0x00, 0x00, 0x00, 0x00, 0x00, 0x00, 0x00,
  0x00, 0x00, 0x00, 0x00, 0x00, 0x00, 0x00, 0x00, 0x00, 0x00, 0x00, 0x00,
  0x00, 0x00, 0x00, 0x00, 0x00, 0x00, 0x00, 0x00, 0x00, 0x00, 0x00, 0x00,
  0x00, 0x00, 0x00, 0x00, 0x00, 0x00, 0x00, 0x00, 0x00, 0x00, 0x00, 0x00,
  0xdd, 0x25, 0x00, 0xfe, 0xd6, 0x08, 0x11, 0x1e, 0x00, 0x09, 0xfb, 0x14,
  0xfe, 0x06, 0xbf, 0xd9, 0x0c, 0x05, 0xa6, 0x9d, 0xbf, 0x1d, 0xe6, 0x0f,
  0xc0, 0x18, 0x30, 0x17, 0xe7, 0x09, 0x1f, 0x08, 0xef, 0x04, 0xc1, 0xc8,
  0x11, 0x22, 0x81, 0x95, 0xc0, 0x13, 0xfc, 0xc8, 0xba, 0x0f, 0x20, 0x1f,
  0xdb, 0x00, 0x21, 0x07, 0xfd, 0xf7, 0xc7, 0xbc, 0xfe, 0x18, 0x9e, 0x91,
  0xb0, 0x1c, 0x04, 0xc6, 0xd9, 0x0a, 0x2e, 0xfe, 0xea, 0xec, 0x0d, 0x14,
  0xfd, 0xf7, 0xd3, 0xd1, 0x04, 0x0c, 0xa2, 0x94, 0xe8, 0x1b, 0x14, 0xca,
  0xe8, 0x05, 0x2d, 0x0e, 0xef, 0xec, 0x1b, 0x19, 0x0e, 0x0a, 0xe6, 0xc4,
  0x1a, 0x0b, 0xa1, 0x98, 0xda, 0x1a, 0x16, 0xce, 0xe5, 0x11, 0x2e, 0xf3,
  0xfa, 0xf9, 0x0b, 0x1e, 0x1d, 0x11, 0xde, 0xb8, 0x14, 0x0a, 0xa1, 0xa8,
  0xf8, 0x1d, 0x05, 0xc8, 0xe0, 0x21, 0x3c, 0x0a, 0xf5, 0xf8, 0x11, 0x00,
  0x22, 0x07, 0xd4, 0xd4, 0x09, 0x09, 0x8e, 0xab, 0x0b, 0xfb, 0x1e, 0xd5,
  0xfa, 0x24, 0x26, 0x0a, 0xfe, 0xfe, 0x21, 0x0f, 0x0a, 0x14, 0xed, 0xc0,
  0xff, 0x16, 0xa9, 0xa5, 0xeb, 0x1a, 0x0f, 0xe7, 0xe0, 0x1b, 0x43, 0x28,
  0xee, 0xf3, 0x22, 0x27, 0x0d, 0x01, 0xdd, 0xd7, 0xfe, 0x06, 0xa1, 0xb7,
  0xf3, 0x1c, 0x0d, 0xe8, 0xdf, 0x19, 0x36, 0x2d, 0xe7, 0xd7, 0x1c, 0x0c,
  0x1e, 0xdc, 0xde, 0xd8, 0x18, 0x0d, 0xbb, 0xc2, 0xfc, 0x16, 0x33, 0xec,
  0xe9, 0x16, 0x2f, 0x10, 0xfb, 0xf7, 0x27, 0xfd, 0x29, 0xfa, 0xef, 0xd8,
  0x19, 0x14, 0xb1, 0xb7, 0xff, 0x04, 0x1a, 0xe7, 0x02, 0x18, 0x0c, 0x0e,
  0xfd, 0xd7, 0x1f, 0x0c, 0x2b, 0x02, 0xde, 0xcd, 0x23, 0x2c, 0x9d, 0xb3,
  0xd4, 0x13, 0x0a, 0xf8, 0xf0, 0x22, 0x20, 0x0b, 0xd2, 0xee, 0x20, 0x3b,
  0x2c, 0xed, 0xd2, 0xce, 0x10, 0x29, 0x9b, 0xb4, 0xe2, 0x0b, 0x05, 0xf7,
  0xe3, 0x10, 0x25, 0x1f, 0xcc, 0xf6, 0x26, 0x2d, 0x1e, 0xef, 0xd2, 0xdc,
  0x1f, 0x37, 0xa3, 0xb8, 0xdf, 0xf7, 0x24, 0xea, 0xdc, 0x0e, 0x2d, 0x25,
  0xda, 0xda, 0x18, 0x1a, 0xf2, 0xf2, 0xed, 0xd6, 0x16, 0x24, 0xb3, 0xb6,
  0xe5, 0x1f, 0x1c, 0xda, 0xd8, 0x1a, 0x3c, 0x37, 0xcc, 0xf9, 0x11, 0x1e,
  0x02, 0xfa, 0xe1, 0xe2, 0x0e, 0x23, 0xba, 0xb0, 0xef, 0x16, 0x2a, 0xfd,
  0xda, 0x06, 0x36, 0x2a, 0xe1, 0xf8, 0x1e, 0x16, 0xfd, 0xf0, 0xe3, 0xc8,
  0x0c, 0x26, 0xac, 0xb2, 0xd5, 0xfe, 0x0c, 0xe6, 0xcf, 0x0f, 0x30, 0x22,
  0xe6, 0x00, 0x33, 0x27, 0x06, 0xf5, 0xde, 0xb9, 0x11, 0x10, 0xc2, 0xb0,
  0xe3, 0x07, 0x1a, 0xf4, 0xd1, 0x05, 0x21, 0x21, 0xfb, 0xf3, 0x21, 0x2f,
  0x06, 0xf1, 0xfa, 0xb7, 0x2a, 0x1a, 0xc3, 0xc7, 0xcf, 0x12, 0x15, 0xfd,
  0xe9, 0x1a, 0x24, 0x2b, 0xf6, 0xf8, 0x1e, 0x2e, 0x0f, 0xf4, 0xe4, 0xac,
  0x1e, 0x18, 0xcb, 0xb8, 0xd8, 0x1d, 0x04, 0xf3, 0xdc, 0x13, 0x18, 0x16,
  0xec, 0xef, 0x17, 0x1b, 0x13, 0xe1, 0xe1, 0xbd, 0x19, 0x11, 0xc1, 0xca,
  0xe2, 0x06, 0x08, 0xf3, 0xe5, 0x19, 0x40, 0x20, 0xf0, 0xdc, 0x2a, 0x16,
  0x0e, 0xde, 0xed, 0xc7, 0x02, 0x1e, 0xb9, 0xc0, 0xde, 0x27, 0x3c, 0x05,
  0xf4, 0x1a, 0x3b, 0x31, 0xdf, 0xf2, 0x18, 0x17, 0x12, 0xe8, 0xfa, 0xa4,
  0x0a, 0x22, 0xb6, 0xbb, 0xd4, 0x29, 0x16, 0x02, 0xec, 0x1c, 0x3f, 0x28,
  0xf7, 0xf4, 0x0e, 0x23, 0x21, 0xeb, 0xe0, 0xb1, 0x02, 0x12, 0xbc, 0xaa,
  0xd9, 0x0d, 0x19, 0x03, 0xe2, 0x30, 0x1a, 0x1e, 0xf5, 0xf1, 0x20, 0x1b,
  0x10, 0xe6, 0xe6, 0xb6, 0x0b, 0x19, 0xbd, 0xcb, 0xe1, 0xf7, 0x16, 0xf3,
  0xf1, 0x24, 0x3e, 0x1f, 0xf6, 0xfd, 0x11, 0x07, 0x0e, 0xf0, 0xe3, 0xa7,
  0x10, 0x12, 0xc6, 0xbf, 0xcc, 0x0b, 0x13, 0xe7, 0xee, 0x10, 0x37, 0x2d,
  0xf6, 0xf4, 0x26, 0x07, 0x02, 0xf3, 0xe9, 0xc2, 0x08, 0x0e, 0xb4, 0xad,
  0xc8, 0xe4, 0x07, 0xe9, 0xdc, 0x16, 0x3d, 0x2d, 0xe1, 0x19, 0x28, 0x0e,
  0x0a, 0xf8, 0xee, 0xb7, 0x02, 0xfe, 0xc1, 0xb3, 0xbd, 0xe3, 0x1c, 0xdf,
  0xdc, 0x13, 0x3a, 0x2d, 0xe3, 0x01, 0x08, 0xf9, 0x03, 0xfb, 0xd6, 0xc9,
  0x04, 0x00, 0x9e, 0xa6, 0xbf, 0xf6, 0x08, 0xd4, 0xc9, 0x0c, 0x49, 0x1f,
  0xcd, 0xf0, 0x0b, 0xef, 0x01, 0xf9, 0xbf, 0xab, 0x07, 0xf2, 0x85, 0xa9,
  0x29, 0x23, 0x3b, 0xd8, 0x1a, 0x09, 0x4f, 0x25, 0x3e, 0xe8, 0x15, 0x09,
  0x34, 0xfb, 0xf4, 0xf0, 0x2b, 0xe7, 0x96, 0xd1, 0x00, 0x00, 0x00, 0x00,
  0x00, 0x00, 0x00, 0x00, 0x00, 0x00, 0x00, 0x00, 0x00, 0x00, 0x00, 0x00,
  0x00, 0x00, 0x00, 0x00, 0x00, 0x00, 0x00, 0x00, 0x00, 0x00, 0x00, 0x00,
  0x00, 0x00, 0x00, 0x00, 0x00, 0x00, 0x00, 0x00, 0x00, 0x00, 0x00, 0x00,
  0x00, 0x00, 0x00, 0x00, 0x00, 0x00, 0x00, 0x00, 0x00, 0x00, 0x00, 0x00,
  0x00, 0x00, 0x00, 0x00, 0x00, 0x00, 0x00, 0x00, 0x00, 0x00, 0x00, 0x00,
  0x00, 0x00, 0x00, 0x00, 0x00, 0x00, 0x00, 0x00, 0x00, 0x00, 0x00, 0x00,
  0x00, 0x00, 0x00, 0x00, 0x00, 0x00, 0x00, 0x00, 0x00, 0x00, 0x00, 0x00,
  0x00, 0x00, 0x00, 0x00, 0x00, 0x00, 0x00, 0x00, 0x00, 0x00, 0x00, 0x00,
  0x00, 0x00, 0x00, 0x00, 0x00, 0x00, 0x00, 0x00, 0x00, 0x00, 0x00, 0x00,
  0x00, 0x00, 0x00, 0x00, 0x00, 0x00, 0x00, 0x00, 0x00, 0x00, 0x00, 0x00,
  0x00, 0x00, 0x00, 0x00, 0x00, 0x00, 0x00, 0x00, 0x00, 0x00, 0x00, 0x00,
  0x00, 0x00, 0x00, 0x00, 0x00, 0x00, 0x00, 0x00, 0x00, 0x00, 0x00, 0x00,
  0x00, 0x00, 0x00, 0x00, 0x00, 0x00, 0x00, 0x00, 0x00, 0x00, 0x00, 0x00,
  0x00, 0x00, 0x00, 0x00, 0x00, 0x00, 0x00, 0x00, 0x00, 0x00, 0x00, 0x00,
  0x00, 0x00, 0x00, 0x00, 0x00, 0x00, 0x00, 0x00, 0x00, 0x00, 0x00, 0x00,
  0x00, 0x00, 0x00, 0x00, 0x00, 0x00, 0x00, 0x00, 0x00, 0x00, 0x00, 0x00,
  0x00, 0x00, 0x00, 0x00, 0x00, 0x00, 0x00, 0x00, 0x00, 0x00, 0x00, 0x00,
  0x00, 0x00, 0x00, 0x00, 0x00, 0x00, 0x00, 0x00, 0x00, 0x00, 0x00, 0x00,
  0x00, 0x00, 0x00, 0x00, 0x00, 0x00, 0x00, 0x00, 0x00, 0x00, 0x00, 0x00,
  0x00, 0x00, 0x00, 0x00, 0x00, 0x00, 0x00, 0x00, 0x00, 0x00, 0x00, 0x00,
  0x00, 0x00, 0x00, 0x00, 0x00, 0x00, 0x00, 0x00, 0x00, 0x00, 0x00, 0x00,
  0x00, 0x00, 0x00, 0x00, 0x00, 0x00, 0x00, 0x00, 0x00, 0x00, 0x00, 0x00,
  0x00, 0x00, 0x00, 0x00, 0x00, 0x00, 0x00, 0x00, 0x00, 0x00, 0x00, 0x00,
  0x00, 0x00, 0x00, 0x00, 0x00, 0x00, 0x00, 0x00, 0x00, 0x00, 0x00, 0x00,
  0x00, 0x00, 0x00, 0x00, 0x00, 0x00, 0x00, 0x00, 0x00, 0x00, 0x00, 0x00,
  0x00, 0x00, 0x00, 0x00, 0x00, 0x00, 0x00, 0x00, 0x00, 0x00, 0x00, 0x00,
  0x00, 0x00, 0x00, 0x00, 0x00, 0x00, 0x00, 0x00, 0x00, 0x00, 0x00, 0x00,
  0x00, 0x00, 0x00, 0x00, 0x00, 0x00, 0x00, 0x00, 0x00, 0x00, 0x00, 0x00,
  0x00, 0x00, 0x00, 0x00, 0x00, 0x00, 0x00, 0x00, 0x00, 0x00, 0x00, 0x00,
  0x00, 0x00, 0x00, 0x00, 0x00, 0x00, 0x00, 0x00, 0x00, 0x00, 0x00, 0x00,
  0x00, 0x00, 0x00, 0x00, 0x00, 0x00, 0x00, 0x00, 0x00, 0x00, 0x00, 0x00,
  0x00, 0x00, 0x00, 0x00, 0x00, 0x00, 0x00, 0x00, 0x00, 0x00, 0x00, 0x00,
  0x00, 0x00, 0x00, 0x00, 0x00, 0x00, 0x00, 0x00, 0x00, 0x00, 0x00, 0x00,
  0x00, 0x00, 0x00, 0x00, 0x00, 0x00, 0x00, 0x00, 0x00, 0x00, 0x00, 0x00,
  0x00, 0x00, 0x00, 0x00, 0x00, 0x00, 0x00, 0x00, 0x00, 0x00, 0x00, 0x00,
  0x00, 0x00, 0x00, 0x00, 0x00, 0x00, 0x00, 0x00, 0x00, 0x00, 0x00, 0x00,
  0x00, 0x00, 0x00, 0x00, 0x00, 0x00, 0x00, 0x00, 0x00, 0x00, 0x00, 0x00,
  0x00, 0x00, 0x00, 0x00, 0x00, 0x00, 0x00, 0x00, 0x00, 0x00, 0x00, 0x00,
  0x00, 0x00, 0x00, 0x00, 0x00, 0x00, 0x00, 0x00, 0x00, 0x00, 0x00, 0x00,
  0x00, 0x00, 0x00, 0x00, 0x00, 0x00, 0x00, 0x00, 0x00, 0x00, 0x00, 0x00,
  0x00, 0x00, 0x00, 0x00, 0x00, 0x00, 0x00, 0x00, 0x00, 0x00, 0x00, 0x00,
  0x00, 0x00, 0x00, 0x00, 0x00, 0x00, 0x00, 0x00, 0x00, 0x00, 0x00, 0x00,
  0x00, 0x00, 0x00, 0x00, 0x00, 0x00, 0x00, 0x00, 0x00, 0x00, 0x00, 0x00,
  0x00, 0x00, 0x00, 0x00, 0x00, 0x00, 0x00, 0x00, 0x00, 0x00, 0x00, 0x00,
  0x00, 0x00, 0x00, 0x00, 0x00, 0x00, 0x00, 0x00, 0x00, 0x00, 0x00, 0x00,
  0x00, 0x00, 0x00, 0x00, 0x00, 0x00, 0x00, 0x00, 0x00, 0x00, 0x00, 0x00,
  0x00, 0x00, 0x00, 0x00, 0x00, 0x00, 0x00, 0x00, 0x00, 0x00, 0x00, 0x00,
  0x00, 0x00, 0x00, 0x00, 0x00, 0x00, 0x00, 0x00, 0x00, 0x00, 0x00, 0x00,
  0x00, 0x00, 0x00, 0x00, 0x00, 0x00, 0x00, 0x00, 0x00, 0x00, 0x00, 0x00,
  0x00, 0x00, 0x00, 0x00, 0x00, 0x00, 0x00, 0x00, 0x00, 0x00, 0x00, 0x00,
  0x00, 0x00, 0x00, 0x00, 0x00, 0x00, 0x00, 0x00, 0x00, 0x00, 0x00, 0x00,
  0x00, 0x00, 0x00, 0x00, 0x00, 0x00, 0x00, 0x00, 0x00, 0x00, 0x00, 0x00,
  0x00, 0x00, 0x00, 0x00, 0x00, 0x00, 0x00, 0x00, 0x00, 0x00, 0x00, 0x00,
  0x00, 0x00, 0x00, 0x00, 0x00, 0x00, 0x00, 0x00, 0x00, 0x00, 0x00, 0x00,
  0x00, 0x00, 0x00, 0x00, 0x00, 0x00, 0x00, 0x00, 0x00, 0x00, 0x00, 0x00,
  0x00, 0x00, 0x00, 0x00, 0x00, 0x00, 0x00, 0x00, 0x00, 0x00, 0x00, 0x00,
  0x00, 0x00, 0x00, 0x00, 0x00, 0x00, 0x00, 0x00, 0x00, 0x00, 0x00, 0x00,
  0x00, 0x00, 0x00, 0x00, 0x00, 0x00, 0x00, 0x00, 0x00, 0x00, 0x00, 0x00,
  0x00, 0x00, 0x00, 0x00, 0x00, 0x00, 0x00, 0x00, 0x00, 0x00, 0x00, 0x00,
  0x00, 0x00, 0x00, 0x00, 0x00, 0x00, 0x00, 0x00, 0x00, 0x00, 0x00, 0x00,
  0x00, 0x00, 0x00, 0x00, 0x00, 0x00, 0x00, 0x00, 0x00, 0x00, 0x00, 0x00,
  0x00, 0x00, 0x00, 0x00, 0x00, 0x00, 0x00, 0x00, 0x00, 0x00, 0x00, 0x00,
  0x00, 0x00, 0x00, 0x00, 0x00, 0x00, 0x00, 0x00, 0x00, 0x00, 0x00, 0x00,
  0x00, 0x00, 0x00, 0x00, 0x00, 0x00, 0x00, 0x00, 0x00, 0x00, 0x00, 0x00,
  0x00, 0x00, 0x00, 0x00, 0x00, 0x00, 0x00, 0x00, 0x00, 0x00, 0x00, 0x00,
  0x00, 0x00, 0x00, 0x00, 0x00, 0x00, 0x00, 0x00, 0x00, 0x00, 0x00, 0x00,
  0x00, 0x00, 0x00, 0x00, 0x00, 0x00, 0x00, 0x00, 0x00, 0x00, 0x00, 0x00,
  0x00, 0x00, 0x00, 0x00, 0x00, 0x00, 0x00, 0x00, 0x00, 0x00, 0x00, 0x00,
  0x00, 0x00, 0x00, 0x00, 0x00, 0x00, 0x00, 0x00, 0x00, 0x00, 0x00, 0x00,
  0x00, 0x00, 0x00, 0x00, 0x00, 0x00, 0x00, 0x00, 0x00, 0x00, 0x00, 0x00,
  0x00, 0x00, 0x00, 0x00, 0x00, 0x00, 0x00, 0x00, 0x00, 0x00, 0x00, 0x00,
  0x00, 0x00, 0x00, 0x00, 0x00, 0x00, 0x00, 0x00, 0x00, 0x00, 0x00, 0x00,
  0x00, 0x00, 0x00, 0x00, 0x00, 0x00, 0x00, 0x00, 0x00, 0x00, 0x00, 0x00,
  0x00, 0x00, 0x00, 0x00, 0x00, 0x00, 0x00, 0x00, 0x00, 0x00, 0x00, 0x00,
  0x00, 0x00, 0x00, 0x00, 0x00, 0x00, 0x00, 0x00, 0x00, 0x00, 0x00, 0x00,
  0x00, 0x00, 0x00, 0x00, 0x00, 0x00, 0x00, 0x00, 0x00, 0x00, 0x00, 0x00,
  0x00, 0x00, 0x00, 0x00, 0x00, 0x00, 0x00, 0x00, 0x00, 0x00, 0x00, 0x00,
  0x00, 0x00, 0x00, 0x00, 0x00, 0x00, 0x00, 0x00, 0x00, 0x00, 0x00, 0x00,
  0x00, 0x00, 0x00, 0x00, 0x00, 0x00, 0x00, 0x00, 0x00, 0x00, 0x00, 0x00,
  0x00, 0x00, 0x00, 0x00, 0x00, 0x00, 0x00, 0x00, 0x00, 0x00, 0x00, 0x00,
  0x00, 0x00, 0x00, 0x00, 0x00, 0x00, 0x00, 0x00, 0x00, 0x00, 0x00, 0x00,
  0x00, 0x00, 0x00, 0x00, 0x00, 0x00, 0x00, 0x00, 0x00, 0x00, 0x00, 0x00,
  0x00, 0x00, 0x00, 0x00, 0x00, 0x00, 0x00, 0x00, 0x00, 0x00, 0x00, 0x00,
  0x00, 0x00, 0x00, 0x00, 0x00, 0x00, 0x00, 0x00, 0x00, 0x00, 0x00, 0x00,
  0x00, 0x00, 0x00, 0x00, 0x00, 0x00, 0x00, 0x00, 0x00, 0x00, 0x00, 0x00,
  0x00, 0x00, 0x00, 0x00, 0x00, 0x00, 0x00, 0x00, 0x00, 0x00, 0x00, 0x00,
  0x00, 0x00, 0x00, 0x00, 0x00, 0x00, 0x00, 0x00, 0x00, 0x00, 0x00, 0x00,
  0x00, 0x00, 0x00, 0x00, 0x00, 0x00, 0x00, 0x00, 0x00, 0x00, 0x00, 0x00,
  0x00, 0x00, 0x00, 0x00, 0x00, 0x00, 0x00, 0x00, 0x00, 0x00, 0x00, 0x00,
  0x00, 0x00, 0x00, 0x00, 0x00, 0x00, 0x00, 0x00, 0x00, 0x00, 0x00, 0x00,
  0x00, 0x00, 0x00, 0x00, 0x00, 0x00, 0x00, 0x00, 0x00, 0x00, 0x00, 0x00,
  0x00, 0x00, 0x00, 0x00, 0x00, 0x00, 0x00, 0x00, 0x00, 0x00, 0x00, 0x00,
  0x00, 0x00, 0x00, 0x00, 0x00, 0x00, 0x00, 0x00, 0x00, 0x00, 0x00, 0x00,
  0x00, 0x00, 0x00, 0x00, 0x00, 0x00, 0x00, 0x00, 0x00, 0x00, 0x00, 0x00,
  0x00, 0x00, 0x00, 0x00, 0x00, 0x00, 0x00, 0x00, 0x00, 0x00, 0x00, 0x00,
  0x00, 0x00, 0x00, 0x00, 0x00, 0x00, 0x00, 0x00, 0x00, 0x00, 0x00, 0x00,
  0x00, 0x00, 0x00, 0x00, 0x00, 0x00, 0x00, 0x00, 0x00, 0x00, 0x00, 0x00,
  0x00, 0x00, 0x00, 0x00, 0x00, 0x00, 0x00, 0x00, 0x00, 0x00, 0x00, 0x00,
  0x00, 0x00, 0x00, 0x00, 0x00, 0x00, 0x00, 0x00, 0x00, 0x00, 0x00, 0x00,
  0x00, 0x00, 0x00, 0x00, 0x00, 0x00, 0x00, 0x00, 0x00, 0x00, 0x00, 0x00,
  0x00, 0x00, 0x00, 0x00, 0x00, 0x00, 0x00, 0x00, 0x00, 0x00, 0x00, 0x00,
  0x00, 0x00, 0x00, 0x00, 0x00, 0x00, 0x00, 0x00, 0x00, 0x00, 0x00, 0x00,
  0x00, 0x00, 0x00, 0x00, 0x00, 0x00, 0x00, 0x00, 0x00, 0x00, 0x00, 0x00,
  0x5e, 0xe4, 0x06, 0x0a, 0x4a, 0x04, 0x15, 0x19, 0x0e, 0xe7, 0x13, 0xe3,
  0x19, 0xe1, 0x00, 0xc8, 0xfd, 0xd4, 0x52, 0x62, 0x69, 0xf0, 0x11, 0x02,
  0x5c, 0xf9, 0x01, 0x2e, 0x18, 0xe6, 0xe7, 0xdd, 0x1b, 0xcc, 0xe5, 0xcb,
  0xfb, 0xca, 0x4f, 0x69, 0x60, 0xf5, 0x03, 0x2a, 0x6c, 0xfe, 0x13, 0x1f,
  0x06, 0xf1, 0xe9, 0xe9, 0x09, 0xe2, 0xea, 0xce, 0x0b, 0xdc, 0x45, 0x6b,
  0x72, 0xf0, 0xf1, 0x40, 0x5e, 0x07, 0x0e, 0x2e, 0x02, 0x0e, 0xf5, 0xe5,
  0x0e, 0xe9, 0xfa, 0xc3, 0x02, 0xd1, 0x2d, 0x5a, 0x5f, 0xed, 0xef, 0x3e,
  0x45, 0x0f, 0x11, 0x23, 0xf0, 0x29, 0xee, 0xe4, 0x07, 0xe9, 0xdb, 0xdd,
  0xf7, 0xca, 0x34, 0x67, 0x5b, 0xf0, 0xec, 0x3e, 0x43, 0x04, 0x1e, 0x2a,
  0x08, 0x1f, 0xf6, 0xee, 0x03, 0xf9, 0xff, 0xdc, 0xfd, 0xd4, 0x25, 0x4e,
  0x4a, 0xf5, 0xdf, 0x38, 0x4d, 0x01, 0x16, 0x21, 0x14, 0x0e, 0xfc, 0xfb,
  0x0b, 0xee, 0x05, 0xd6, 0x05, 0xcf, 0x34, 0x45, 0x3e, 0x00, 0xf1, 0x3a,
  0x50, 0x03, 0x0a, 0x22, 0x1a, 0x16, 0x02, 0xee, 0x11, 0xde, 0xe5, 0xe0,
  0x10, 0xbc, 0x33, 0x44, 0x5f, 0xeb, 0xe8, 0x22, 0x5e, 0x09, 0x05, 0x0f,
  0x0b, 0x1d, 0xfd, 0xe7, 0x19, 0xdf, 0xf1, 0xdc, 0x14, 0xcb, 0x33, 0x4d,
  0x4c, 0xf8, 0xe5, 0x2e, 0x6c, 0x07, 0x02, 0x08, 0x04, 0x1a, 0xfe, 0xf8,
  0x12, 0xe9, 0xec, 0xcc, 0xfa, 0xdf, 0x25, 0x3f, 0x55, 0x01, 0xde, 0x28,
  0x5a, 0x06, 0x08, 0x1c, 0x0e, 0x0d, 0x01, 0x02, 0x07, 0xe0, 0xd6, 0xc9,
  0xff, 0xc4, 0x22, 0x2d, 0x53, 0x0e, 0xde, 0x2f, 0x51, 0x0d, 0x11, 0x1d,
  0x1c, 0x1e, 0x03, 0xf2, 0x0c, 0xf5, 0xd5, 0xdb, 0xfa, 0xd2, 0x27, 0x3d,
  0x5a, 0x0d, 0xe4, 0x37, 0x48, 0xfd, 0x07, 0x29, 0x23, 0x10, 0x09, 0xdc,
  0x0f, 0xfd, 0xd7, 0xdf, 0x04, 0xd5, 0x1f, 0x31, 0x53, 0x06, 0xd8, 0x26,
  0x49, 0x0a, 0x02, 0x1e, 0x21, 0x05, 0xf4, 0xf9, 0x08, 0xf0, 0xdc, 0xe2,
  0xf5, 0xdb, 0x2b, 0x3a, 0x57, 0x14, 0xd7, 0x3a, 0x52, 0x10, 0x01, 0x1e,
  0x2b, 0x10, 0x04, 0xf2, 0x16, 0xfa, 0xe9, 0xec, 0xfb, 0xe2, 0x25, 0x42,
  0x62, 0x08, 0xe1, 0x37, 0x56, 0x05, 0x05, 0x16, 0x29, 0xfa, 0x00, 0xe8,
  0x0e, 0xf5, 0xd8, 0xd7, 0xf9, 0xe0, 0x22, 0x4c, 0x57, 0x0f, 0xcd, 0x31,
  0x5c, 0x10, 0x05, 0x14, 0x1d, 0x06, 0xf8, 0xef, 0x1b, 0xe2, 0xd1, 0xde,
  0x02, 0xc2, 0x2e, 0x33, 0x6a, 0x0f, 0xd6, 0x33, 0x54, 0x12, 0x03, 0x16,
  0x23, 0x09, 0xf7, 0xe9, 0x24, 0xdd, 0xe5, 0xe1, 0xfc, 0xd2, 0x1f, 0x46,
  0x57, 0x18, 0xd8, 0x27, 0x5a, 0x14, 0x0c, 0x1a, 0x2d, 0x10, 0x01, 0xea,
  0x17, 0xe5, 0xdf, 0xf4, 0xf4, 0xc9, 0x28, 0x37, 0x66, 0x03, 0xdd, 0x36,
  0x52, 0x0e, 0x0a, 0x18, 0x1b, 0x04, 0x02, 0xe2, 0x0e, 0xd0, 0xe3, 0xe7,
  0xf9, 0xd8, 0x26, 0x3e, 0x49, 0x12, 0xdb, 0x38, 0x56, 0x0d, 0x16, 0x1b,
  0x0b, 0x11, 0x00, 0xfb, 0x0c, 0xee, 0xe0, 0xdc, 0xf8, 0xd5, 0x23, 0x4a,
  0x41, 0x21, 0xe3, 0x2c, 0x4f, 0x11, 0x05, 0x17, 0x17, 0x0c, 0xf4, 0xed,
  0x05, 0xe8, 0xe2, 0xdb, 0x0b, 0xd5, 0x1b, 0x3e, 0x51, 0x19, 0xdc, 0x40,
  0x40, 0x0e, 0x0d, 0x0b, 0x25, 0x07, 0xf4, 0xe1, 0x0d, 0xda, 0xd4, 0xd3,
  0x0b, 0xb7, 0x2e, 0x4d, 0x4a, 0x24, 0xe7, 0x54, 0x39, 0x12, 0xf9, 0x0a,
  0x27, 0x09, 0xf3, 0xe5, 0xfd, 0xe0, 0xe4, 0xcf, 0x15, 0xe0, 0x31, 0x4d,
  0x46, 0x2e, 0xef, 0x34, 0x3f, 0x06, 0xfd, 0x09, 0x13, 0x13, 0xe6, 0xdf,
  0x08, 0xf5, 0xda, 0xe0, 0x01, 0xe2, 0x28, 0x56, 0x31, 0x37, 0xea, 0x5a,
  0x31, 0x0b, 0xfd, 0x18, 0x19, 0xfe, 0xf6, 0xd4, 0x0f, 0xef, 0xe0, 0xf2,
  0xf9, 0xd0, 0x32, 0x5d, 0x41, 0x31, 0xe4, 0x40, 0x29, 0x14, 0xff, 0x0d,
  0x26, 0x06, 0xf0, 0xea, 0x13, 0xe9, 0xe4, 0xe5, 0x03, 0xd1, 0x3c, 0x6a,
  0x4a, 0x3a, 0xf4, 0x40, 0x3a, 0x10, 0xfd, 0x0c, 0x27, 0xdb, 0xf8, 0xea,
  0x0d, 0xd4, 0xd9, 0xe6, 0x09, 0xf0, 0x34, 0x6c, 0x49, 0x35, 0xf1, 0x4a,
  0x39, 0x0b, 0xfc, 0x19, 0x1c, 0xf0, 0xf6, 0xe4, 0x0c, 0xdd, 0xd8, 0xe3,
  0x07, 0xe4, 0x3f, 0x72, 0x4b, 0x1e, 0xf0, 0x3e, 0x54, 0x07, 0xfa, 0x23,
  0x0d, 0x02, 0xfb, 0xfb, 0x12, 0xd2, 0xe2, 0xdb, 0x08, 0xe3, 0x4d, 0x7f,
  0xeb, 0x00, 0xf8, 0x33, 0xcb, 0x0e, 0x01, 0xf8, 0xec, 0xf8, 0x02, 0xf3,
  0x08, 0xcf, 0xde, 0xbd, 0xd1, 0xd7, 0x49, 0x29, 0x0c, 0xf0, 0xd0, 0x35,
  0x17, 0x16, 0xf3, 0x2b, 0xfe, 0x00, 0xf6, 0x12, 0x07, 0xf6, 0xfc, 0xf9,
  0x01, 0xf4, 0x24, 0x1c, 0xf9, 0xf3, 0xc4, 0x2d, 0x23, 0x12, 0xec, 0x39,
  0x0a, 0x05, 0xcc, 0x06, 0x0b, 0xef, 0xe8, 0xfe, 0xfe, 0xe9, 0x13, 0x2c,
  0xfc, 0xe5, 0xc3, 0x46, 0x3a, 0x0b, 0xf1, 0x2a, 0xf9, 0x0d, 0xee, 0x10,
  0x06, 0xf5, 0xf9, 0xef, 0x0d, 0xef, 0x10, 0x22, 0x09, 0xdf, 0xaa, 0x50,
  0x42, 0x09, 0xf0, 0x2d, 0xfe, 0x21, 0xea, 0x0f, 0x0f, 0xfb, 0xf5, 0xe8,
  0x0b, 0xfd, 0x0d, 0x04, 0x10, 0xe3, 0xa3, 0x42, 0x2a, 0x04, 0xf7, 0x20,
  0xe9, 0x2b, 0xfb, 0x1b, 0x05, 0x03, 0xe2, 0x04, 0xfd, 0xfa, 0x0b, 0x27,
  0x03, 0xdd, 0xb1, 0x4a, 0x14, 0xfc, 0xf4, 0x25, 0x01, 0x26, 0xf0, 0x0e,
  0xfb, 0x06, 0xf5, 0xff, 0x05, 0x04, 0x01, 0x12, 0xfb, 0xdb, 0xa0, 0x40,
  0x0b, 0xfc, 0xfa, 0x20, 0x15, 0x0a, 0x01, 0x23, 0x06, 0xfd, 0xf8, 0x00,
  0x07, 0x02, 0x1e, 0x1f, 0x04, 0xe9, 0xc0, 0x4e, 0x1f, 0x0b, 0xec, 0x28,
  0x18, 0x22, 0xf0, 0x1c, 0x10, 0xee, 0xf0, 0x04, 0x12, 0xf4, 0x26, 0x19,
  0x11, 0xef, 0x9d, 0x2a, 0x2e, 0x07, 0xf8, 0x1b, 0x11, 0x14, 0xe1, 0x14,
  0x19, 0xfc, 0xf0, 0x0c, 0x16, 0xf5, 0x10, 0x1b, 0x19, 0xe9, 0xa0, 0x3e,
  0x2b, 0x0d, 0xf9, 0x0e, 0x0b, 0x10, 0xe7, 0x19, 0x10, 0x07, 0xec, 0xfb,
  0xff, 0x11, 0x04, 0x19, 0x12, 0xf7, 0x93, 0x23, 0x35, 0x05, 0x05, 0x31,
  0x0c, 0x12, 0xf4, 0x16, 0xf4, 0xff, 0xec, 0xee, 0xfc, 0xf1, 0x0a, 0xfc,
  0x1c, 0x0d, 0x96, 0x36, 0x3f, 0x09, 0x0d, 0x2c, 0x0e, 0x28, 0xf6, 0x06,
  0xfd, 0x08, 0xde, 0xfe, 0xfc, 0x02, 0x08, 0x0e, 0x35, 0x0a, 0x8b, 0x30,
  0x44, 0x02, 0x01, 0x2c, 0x20, 0x0f, 0xf2, 0xfc, 0x08, 0x1d, 0xef, 0x00,
  0x07, 0x03, 0x02, 0xfe, 0x25, 0xf8, 0x8d, 0x26, 0x3a, 0x01, 0xfa, 0x26,
  0x21, 0x0e, 0xe3, 0xff, 0x06, 0x0e, 0xed, 0x0f, 0x08, 0x0f, 0x08, 0x03,
  0x27, 0x12, 0x81, 0x2b, 0x3c, 0x08, 0x03, 0x18, 0x1a, 0x19, 0xf3, 0x0f,
  0x04, 0x16, 0x00, 0x1c, 0x0e, 0xfd, 0x20, 0x16, 0x2c, 0x06, 0x9e, 0x37,
  0x42, 0x0a, 0x08, 0x13, 0x1c, 0x04, 0x01, 0x09, 0x04, 0x0e, 0xea, 0x04,
  0x14, 0x0e, 0x09, 0x1f, 0x25, 0xfe, 0x96, 0x1d, 0x38, 0x1c, 0x0d, 0x1f,
  0x21, 0x09, 0xfc, 0x04, 0x04, 0x03, 0xf6, 0x0d, 0x0b, 0xe1, 0x0e, 0x06,
  0x2e, 0x13, 0x81, 0x20, 0x3b, 0x1f, 0xed, 0x21, 0x0d, 0x0a, 0xf1, 0xfa,
  0x16, 0xfa, 0x03, 0x09, 0x04, 0xfa, 0x17, 0x0d, 0x18, 0x1c, 0x99, 0x33,
  0x36, 0x23, 0x07, 0x1d, 0x16, 0x1c, 0xff, 0xfd, 0x19, 0xf9, 0xee, 0x17,
  0xf8, 0xf5, 0x0f, 0xff, 0x22, 0x02, 0x9d, 0x1f, 0x27, 0x1c, 0xff, 0x1c,
  0x0e, 0x1e, 0x10, 0xf9, 0x02, 0xf2, 0xf4, 0xf8, 0x02, 0x0f, 0x0d, 0x0a,
  0x34, 0x11, 0x9f, 0x33, 0x34, 0x13, 0xfa, 0x2b, 0x01, 0x1b, 0xf8, 0x0d,
  0x09, 0xed, 0xed, 0xf9, 0xf8, 0x0e, 0xff, 0x1d, 0x16, 0x15, 0xaf, 0x28,
  0x1b, 0x23, 0x03, 0x26, 0x12, 0x18, 0x07, 0x14, 0x01, 0xe5, 0xef, 0xf1,
  0x07, 0x11, 0xf3, 0x06, 0x28, 0x0d, 0x96, 0x38, 0x09, 0x1e, 0xf9, 0x16,
  0x0d, 0x16, 0xfb, 0x0b, 0xfc, 0xf1, 0xec, 0xe7, 0x09, 0xe8, 0x18, 0x0e,
  0x1e, 0xfc, 0xb6, 0x3d, 0x16, 0x1d, 0xe9, 0x16, 0x0c, 0xfe, 0xf6, 0x0b,
  0x02, 0xeb, 0xe2, 0xea, 0x01, 0x07, 0x04, 0x1c, 0x0a, 0x0a, 0xa8, 0x32,
  0x14, 0x13, 0xff, 0x14, 0x01, 0x11, 0xf5, 0x0f, 0xff, 0xf6, 0xd9, 0xf4,
  0x06, 0x01, 0x00, 0x13, 0x0a, 0x0e, 0xbc, 0x43, 0x0b, 0x0f, 0x01, 0x24,
  0x0a, 0x06, 0xf5, 0x0c, 0x02, 0xf4, 0xe6, 0x0e, 0xfb, 0xfc, 0x03, 0x25,
  0x0f, 0x08, 0xbe, 0x2f, 0x07, 0x21, 0xed, 0x27, 0x0e, 0x03, 0xf3, 0x1c,
  0x08, 0xf8, 0xf5, 0xf9, 0x01, 0xf6, 0x17, 0x28, 0x14, 0x11, 0xb9, 0x39,
  0x0f, 0x21, 0xe8, 0x1d, 0x16, 0xe9, 0xee, 0x15, 0x0f, 0xfb, 0xe5, 0xf7,
  0x08, 0x08, 0x22, 0x1e, 0x0a, 0x03, 0xb6, 0x34, 0x13, 0x16, 0xdc, 0x28,
  0x13, 0xf9, 0x02, 0x0a, 0x0f, 0xfb, 0xe2, 0x06, 0x02, 0x05, 0x1c, 0x2b,
  0x20, 0x02, 0xbb, 0x40, 0x1b, 0x12, 0xe6, 0x33, 0x02, 0x10, 0xfd, 0x13,
  0x0a, 0xf7, 0xf0, 0x00, 0xfe, 0xf9, 0x1b, 0x33, 0xb8, 0xfc, 0xcf, 0x22,
  0xbe, 0x1b, 0xf2, 0x01, 0xed, 0x03, 0xf1, 0x02, 0x07, 0xf0, 0xf1, 0xf9,
  0xeb, 0xf6, 0x17, 0x1c, 0xb2, 0x26, 0x24, 0x0c, 0xa6, 0xff, 0xf8, 0xf6,
  0xfb, 0x18, 0xfd, 0x31, 0xe3, 0x24, 0x1e, 0x49, 0x06, 0x34, 0xc3, 0xb2,
  0x99, 0x17, 0x10, 0x16, 0x97, 0x08, 0x0f, 0xda, 0xea, 0x1d, 0x37, 0x3c,
  0xe4, 0x3d, 0x38, 0x41, 0x0d, 0x54, 0xc9, 0xa5, 0x9e, 0x18, 0x26, 0xe3,
  0x81, 0x09, 0xee, 0xf0, 0xf2, 0x14, 0x2d, 0x29, 0xf8, 0x29, 0x33, 0x46,
  0xf2, 0x35, 0xd7, 0x9f, 0x8b, 0x1a, 0x39, 0xc1, 0x94, 0xfe, 0xfe, 0xd2,
  0x02, 0xf1, 0x23, 0x32, 0xf1, 0x20, 0x26, 0x5a, 0xfc, 0x34, 0xf6, 0xb5,
  0xa9, 0x1c, 0x3d, 0xc7, 0xbb, 0xf7, 0xfc, 0xe6, 0x21, 0xdf, 0x24, 0x2a,
  0xff, 0x21, 0x4c, 0x28, 0x10, 0x3b, 0xec, 0xa3, 0xa9, 0x1a, 0x3d, 0xcb,
  0xc8, 0x05, 0xf1, 0xda, 0xff, 0xeb, 0x21, 0x23, 0x09, 0x12, 0x1f, 0x35,
  0x08, 0x2e, 0xf9, 0xc5, 0xc5, 0x17, 0x4f, 0xdd, 0xbb, 0x06, 0xf6, 0xea,
  0xee, 0x03, 0x17, 0x0d, 0xfb, 0x21, 0x0a, 0x3a, 0x00, 0x31, 0xe5, 0xcd,
  0xd8, 0x04, 0x35, 0xd0, 0xb7, 0xfa, 0x0a, 0xe2, 0xe7, 0xf9, 0x0d, 0x21,
  0xf6, 0x39, 0x3c, 0x2c, 0xf3, 0x53, 0xe6, 0xc6, 0xa7, 0x29, 0x3d, 0xf1,
  0xa1, 0xfb, 0x06, 0x01, 0xfd, 0xf0, 0x12, 0x2d, 0xe9, 0x33, 0x2b, 0x32,
  0xf0, 0x48, 0xe0, 0xbe, 0xbb, 0x1e, 0x3d, 0xe2, 0x94, 0xf9, 0x16, 0x0d,
  0x03, 0xea, 0x13, 0x0f, 0xef, 0x2a, 0x37, 0x4a, 0x0c, 0x1e, 0xf8, 0xcd,
  0xb3, 0x10, 0x47, 0xeb, 0xa7, 0xf8, 0x06, 0xe8, 0xfb, 0x01, 0x16, 0x07,
  0xfd, 0x37, 0x50, 0x53, 0x10, 0x57, 0x00, 0xea, 0xb7, 0xfc, 0x45, 0xe7,
  0xb6, 0xf2, 0xf1, 0xe5, 0xe9, 0xe7, 0x11, 0x1c, 0xfd, 0x1a, 0x49, 0x3c,
  0x14, 0x3a, 0xf3, 0xcf, 0xa3, 0x09, 0x42, 0xde, 0xc4, 0x0f, 0x00, 0xd4,
  0xdd, 0xfc, 0x0d, 0x40, 0xfb, 0x08, 0x47, 0x36, 0xfe, 0x38, 0xfe, 0xe7,
  0xaf, 0x11, 0x51, 0xea, 0xb7, 0xfd, 0x09, 0xe9, 0xda, 0x13, 0x28, 0x16,
  0x00, 0x17, 0x43, 0x33, 0x16, 0x2a, 0xf4, 0xd5, 0xab, 0xfc, 0x55, 0xd6,
  0xae, 0xf3, 0x0f, 0xec, 0xd9, 0xf4, 0x12, 0x15, 0xed, 0x05, 0x2e, 0x25,
  0x0b, 0x2a, 0xef, 0xc7, 0x9c, 0x12, 0x40, 0xd9, 0xa8, 0xf8, 0x0e, 0xf8,
  0xda, 0x1a, 0x0e, 0x21, 0xf5, 0x14, 0x46, 0x43, 0x06, 0x1d, 0xff, 0xb4,
  0xa7, 0x07, 0x63, 0xe2, 0xa7, 0xf0, 0x14, 0xef, 0xe6, 0x04, 0x1e, 0x1e,
  0xeb, 0x24, 0x57, 0x3f, 0xf3, 0x52, 0xe9, 0xd9, 0x94, 0xff, 0x53, 0xde,
  0xad, 0xf3, 0x08, 0xf2, 0xe0, 0x09, 0x2a, 0x27, 0xe2, 0x2d, 0x36, 0x31,
  0x04, 0x36, 0xff, 0xbe, 0xb0, 0xf5, 0x57, 0xf0, 0x99, 0xe3, 0xf7, 0xea,
  0xd1, 0xf9, 0x14, 0x2c, 0xeb, 0x2b, 0x3c, 0x13, 0x08, 0x52, 0xf2, 0xd3,
  0x9b, 0x17, 0x48, 0xe4, 0xb6, 0xf0, 0x00, 0xf0, 0xe9, 0x04, 0x06, 0x31,
  0xf9, 0x44, 0x35, 0x2c, 0x01, 0x2b, 0xfa, 0xcb, 0xb3, 0xfd, 0x4d, 0xdc,
  0xaf, 0xf2, 0xf3, 0xe7, 0xfa, 0xf9, 0x10, 0x13, 0xfc, 0x18, 0x43, 0x3a,
  0x05, 0x34, 0xfc, 0xbf, 0xc8, 0xe4, 0x40, 0xef, 0xb1, 0xee, 0x01, 0xec,
  0xec, 0x02, 0x24, 0x1d, 0x00, 0x24, 0x3c, 0x42, 0xf5, 0x37, 0x09, 0xd0,
  0xbb, 0xf1, 0x51, 0xd2, 0xc9, 0xf5, 0x03, 0x03, 0xe3, 0x03, 0x20, 0x2d,
  0xf8, 0x41, 0x4e, 0x4c, 0xf8, 0x64, 0xe3, 0xbe, 0xb7, 0xe8, 0x3c, 0xc4,
  0xd0, 0xf0, 0x1b, 0x02, 0xdb, 0x01, 0x23, 0x2f, 0x07, 0x34, 0x3a, 0x4e,
  0xef, 0x1f, 0xe4, 0xbb, 0xbd, 0xdb, 0x38, 0xe3, 0xc0, 0x01, 0x10, 0x00,
  0xf3, 0xf5, 0x31, 0x3d, 0xf6, 0x11, 0x4d, 0x33, 0x03, 0x2d, 0xf2, 0xc1,
  0xd8, 0xd1, 0x3d, 0xb0, 0xdd, 0xf9, 0x0c, 0xf2, 0xf0, 0x12, 0x15, 0x40,
  0xf8, 0x0f, 0x43, 0x15, 0x0b, 0x3d, 0xe2, 0xab, 0xc0, 0xda, 0x49, 0xd3,
  0xe2, 0xed, 0x0b, 0xf9, 0xe1, 0x08, 0x25, 0x2b, 0xef, 0x1d, 0x3d, 0x32,
  0x03, 0x37, 0xd6, 0x9e, 0xb9, 0xc6, 0x35, 0xc9, 0xd0, 0xfa, 0x0f, 0xfe,
  0xdd, 0x3b, 0x22, 0x2f, 0xf3, 0x34, 0x49, 0x30, 0xfb, 0x14, 0xe3, 0xa6,
  0xb2, 0xc9, 0x34, 0xc1, 0xcb, 0xfb, 0x17, 0xed, 0xea, 0x24, 0x1c, 0x33,
  0xf7, 0x2b, 0x4a, 0x30, 0xfd, 0x27, 0xd6, 0x99, 0xac, 0xe6, 0x3a, 0xcd,
  0xae, 0xff, 0x14, 0xe0, 0xf2, 0x07, 0x15, 0x18, 0xf5, 0x34, 0x40, 0x36,
  0xfc, 0x1e, 0xc2, 0x8a, 0x30, 0x0d, 0x2a, 0xdf, 0x57, 0xf9, 0x0d, 0x0c,
  0x36, 0x0b, 0x1b, 0x1f, 0x14, 0x40, 0x45, 0x46, 0x5f, 0x2f, 0xc8, 0xce,
  0x00, 0x00, 0x00, 0x00, 0x00, 0x00, 0x00, 0x00, 0x00, 0x00, 0x00, 0x00,
  0x00, 0x00, 0x00, 0x00, 0x00, 0x00, 0x00, 0x00, 0x00, 0x00, 0x00, 0x00,
  0x00, 0x00, 0x00, 0x00, 0x00, 0x00, 0x00, 0x00, 0x00, 0x00, 0x00, 0x00,
  0x00, 0x00, 0x00, 0x00, 0x00, 0x00, 0x00, 0x00, 0x00, 0x00, 0x00, 0x00,
  0x00, 0x00, 0x00, 0x00, 0x00, 0x00, 0x00, 0x00, 0x00, 0x00, 0x00, 0x00,
  0x00, 0x00, 0x00, 0x00, 0x00, 0x00, 0x00, 0x00, 0x00, 0x00, 0x00, 0x00,
  0x00, 0x00, 0x00, 0x00, 0x00, 0x00, 0x00, 0x00, 0x00, 0x00, 0x00, 0x00,
  0x00, 0x00, 0x00, 0x00, 0x00, 0x00, 0x00, 0x00, 0x00, 0x00, 0x00, 0x00,
  0x00, 0x00, 0x00, 0x00, 0x00, 0x00, 0x00, 0x00, 0x00, 0x00, 0x00, 0x00,
  0x00, 0x00, 0x00, 0x00, 0x00, 0x00, 0x00, 0x00, 0x00, 0x00, 0x00, 0x00,
  0x00, 0x00, 0x00, 0x00, 0x00, 0x00, 0x00, 0x00, 0x00, 0x00, 0x00, 0x00,
  0x00, 0x00, 0x00, 0x00, 0x00, 0x00, 0x00, 0x00, 0x00, 0x00, 0x00, 0x00,
  0x00, 0x00, 0x00, 0x00, 0x00, 0x00, 0x00, 0x00, 0x00, 0x00, 0x00, 0x00,
  0x00, 0x00, 0x00, 0x00, 0x00, 0x00, 0x00, 0x00, 0x00, 0x00, 0x00, 0x00,
  0x00, 0x00, 0x00, 0x00, 0x00, 0x00, 0x00, 0x00, 0x00, 0x00, 0x00, 0x00,
  0x00, 0x00, 0x00, 0x00, 0x00, 0x00, 0x00, 0x00, 0x00, 0x00, 0x00, 0x00,
  0x00, 0x00, 0x00, 0x00, 0x00, 0x00, 0x00, 0x00, 0x00, 0x00, 0x00, 0x00,
  0x00, 0x00, 0x00, 0x00, 0x00, 0x00, 0x00, 0x00, 0x00, 0x00, 0x00, 0x00,
  0x00, 0x00, 0x00, 0x00, 0x00, 0x00, 0x00, 0x00, 0x00, 0x00, 0x00, 0x00,
  0x00, 0x00, 0x00, 0x00, 0x00, 0x00, 0x00, 0x00, 0x00, 0x00, 0x00, 0x00,
  0x00, 0x00, 0x00, 0x00, 0x00, 0x00, 0x00, 0x00, 0x00, 0x00, 0x00, 0x00,
  0x00, 0x00, 0x00, 0x00, 0x00, 0x00, 0x00, 0x00, 0x00, 0x00, 0x00, 0x00,
  0x00, 0x00, 0x00, 0x00, 0x00, 0x00, 0x00, 0x00, 0x00, 0x00, 0x00, 0x00,
  0x00, 0x00, 0x00, 0x00, 0x00, 0x00, 0x00, 0x00, 0x00, 0x00, 0x00, 0x00,
  0x00, 0x00, 0x00, 0x00, 0x00, 0x00, 0x00, 0x00, 0x00, 0x00, 0x00, 0x00,
  0x00, 0x00, 0x00, 0x00, 0x00, 0x00, 0x00, 0x00, 0x00, 0x00, 0x00, 0x00,
  0x00, 0x00, 0x00, 0x00, 0x00, 0x00, 0x00, 0x00, 0x00, 0x00, 0x00, 0x00,
  0x00, 0x00, 0x00, 0x00, 0x00, 0x00, 0x00, 0x00, 0x00, 0x00, 0x00, 0x00,
  0x00, 0x00, 0x00, 0x00, 0x00, 0x00, 0x00, 0x00, 0x00, 0x00, 0x00, 0x00,
  0x00, 0x00, 0x00, 0x00, 0x00, 0x00, 0x00, 0x00, 0x00, 0x00, 0x00, 0x00,
  0x00, 0x00, 0x00, 0x00, 0x00, 0x00, 0x00, 0x00, 0x00, 0x00, 0x00, 0x00,
  0x00, 0x00, 0x00, 0x00, 0x00, 0x00, 0x00, 0x00, 0x00, 0x00, 0x00, 0x00,
  0x00, 0x00, 0x00, 0x00, 0x00, 0x00, 0x00, 0x00, 0x00, 0x00, 0x00, 0x00,
  0x00, 0x00, 0x00, 0x00, 0x00, 0x00, 0x00, 0x00, 0x00, 0x00, 0x00, 0x00,
  0x00, 0x00, 0x00, 0x00, 0x00, 0x00, 0x00, 0x00, 0x00, 0x00, 0x00, 0x00,
  0x00, 0x00, 0x00, 0x00, 0x00, 0x00, 0x00, 0x00, 0x00, 0x00, 0x00, 0x00,
  0x00, 0x00, 0x00, 0x00, 0x00, 0x00, 0x00, 0x00, 0x00, 0x00, 0x00, 0x00,
  0x00, 0x00, 0x00, 0x00, 0x00, 0x00, 0x00, 0x00, 0x00, 0x00, 0x00, 0x00,
  0x00, 0x00, 0x00, 0x00, 0x00, 0x00, 0x00, 0x00, 0x00, 0x00, 0x00, 0x00,
  0x00, 0x00, 0x00, 0x00, 0x00, 0x00, 0x00, 0x00, 0x00, 0x00, 0x00, 0x00,
  0x00, 0x00, 0x00, 0x00, 0x00, 0x00, 0x00, 0x00, 0x00, 0x00, 0x00, 0x00,
  0x00, 0x00, 0x00, 0x00, 0x00, 0x00, 0x00, 0x00, 0x00, 0x00, 0x00, 0x00,
  0x00, 0x00, 0x00, 0x00, 0x00, 0x00, 0x00, 0x00, 0x00, 0x00, 0x00, 0x00,
  0x00, 0x00, 0x00, 0x00, 0x00, 0x00, 0x00, 0x00, 0x00, 0x00, 0x00, 0x00,
  0x00, 0x00, 0x00, 0x00, 0x00, 0x00, 0x00, 0x00, 0x00, 0x00, 0x00, 0x00,
  0x00, 0x00, 0x00, 0x00, 0x00, 0x00, 0x00, 0x00, 0x00, 0x00, 0x00, 0x00,
  0x00, 0x00, 0x00, 0x00, 0x00, 0x00, 0x00, 0x00, 0x00, 0x00, 0x00, 0x00,
  0x00, 0x00, 0x00, 0x00, 0x00, 0x00, 0x00, 0x00, 0x00, 0x00, 0x00, 0x00,
  0x00, 0x00, 0x00, 0x00, 0x00, 0x00, 0x00, 0x00, 0x00, 0x00, 0x00, 0x00,
  0x00, 0x00, 0x00, 0x00, 0x00, 0x00, 0x00, 0x00, 0x00, 0x00, 0x00, 0x00,
  0x00, 0x00, 0x00, 0x00, 0x00, 0x00, 0x00, 0x00, 0x00, 0x00, 0x00, 0x00,
  0x00, 0x00, 0x00, 0x00, 0x00, 0x00, 0x00, 0x00, 0x00, 0x00, 0x00, 0x00,
  0x00, 0x00, 0x00, 0x00, 0x00, 0x00, 0x00, 0x00, 0x00, 0x00, 0x00, 0x00,
  0x00, 0x00, 0x00, 0x00, 0x00, 0x00, 0x00, 0x00, 0x00, 0x00, 0x00, 0x00,
  0x00, 0x00, 0x00, 0x00, 0x00, 0x00, 0x00, 0x00, 0x00, 0x00, 0x00, 0x00,
  0x00, 0x00, 0x00, 0x00, 0x00, 0x00, 0x00, 0x00, 0x00, 0x00, 0x00, 0x00,
  0x00, 0x00, 0x00, 0x00, 0x00, 0x00, 0x00, 0x00, 0x00, 0x00, 0x00, 0x00,
  0x00, 0x00, 0x00, 0x00, 0x00, 0x00, 0x00, 0x00, 0x00, 0x00, 0x00, 0x00,
  0x00, 0x00, 0x00, 0x00, 0x00, 0x00, 0x00, 0x00, 0x00, 0x00, 0x00, 0x00,
  0x00, 0x00, 0x00, 0x00, 0x00, 0x00, 0x00, 0x00, 0x00, 0x00, 0x00, 0x00,
  0x00, 0x00, 0x00, 0x00, 0x00, 0x00, 0x00, 0x00, 0x00, 0x00, 0x00, 0x00,
  0x00, 0x00, 0x00, 0x00, 0x00, 0x00, 0x00, 0x00, 0x00, 0x00, 0x00, 0x00,
  0x00, 0x00, 0x00, 0x00, 0x00, 0x00, 0x00, 0x00, 0x00, 0x00, 0x00, 0x00,
  0x00, 0x00, 0x00, 0x00, 0x00, 0x00, 0x00, 0x00, 0x00, 0x00, 0x00, 0x00,
  0x00, 0x00, 0x00, 0x00, 0x00, 0x00, 0x00, 0x00, 0x00, 0x00, 0x00, 0x00,
  0x00, 0x00, 0x00, 0x00, 0x00, 0x00, 0x00, 0x00, 0x00, 0x00, 0x00, 0x00,
  0x00, 0x00, 0x00, 0x00, 0x00, 0x00, 0x00, 0x00, 0x00, 0x00, 0x00, 0x00,
  0x00, 0x00, 0x00, 0x00, 0x00, 0x00, 0x00, 0x00, 0x00, 0x00, 0x00, 0x00,
  0x00, 0x00, 0x00, 0x00, 0x00, 0x00, 0x00, 0x00, 0x00, 0x00, 0x00, 0x00,
  0x00, 0x00, 0x00, 0x00, 0x00, 0x00, 0x00, 0x00, 0x00, 0x00, 0x00, 0x00,
  0x00, 0x00, 0x00, 0x00, 0x00, 0x00, 0x00, 0x00, 0x00, 0x00, 0x00, 0x00,
  0x00, 0x00, 0x00, 0x00, 0x00, 0x00, 0x00, 0x00, 0x00, 0x00, 0x00, 0x00,
  0x00, 0x00, 0x00, 0x00, 0x00, 0x00, 0x00, 0x00, 0x00, 0x00, 0x00, 0x00,
  0x00, 0x00, 0x00, 0x00, 0x00, 0x00, 0x00, 0x00, 0x00, 0x00, 0x00, 0x00,
  0x00, 0x00, 0x00, 0x00, 0x00, 0x00, 0x00, 0x00, 0x00, 0x00, 0x00, 0x00,
  0x00, 0x00, 0x00, 0x00, 0x00, 0x00, 0x00, 0x00, 0x00, 0x00, 0x00, 0x00,
  0x00, 0x00, 0x00, 0x00, 0x00, 0x00, 0x00, 0x00, 0x00, 0x00, 0x00, 0x00,
  0x00, 0x00, 0x00, 0x00, 0x00, 0x00, 0x00, 0x00, 0x00, 0x00, 0x00, 0x00,
  0x00, 0x00, 0x00, 0x00, 0x00, 0x00, 0x00, 0x00, 0x00, 0x00, 0x00, 0x00,
  0x00, 0x00, 0x00, 0x00, 0x00, 0x00, 0x00, 0x00, 0x00, 0x00, 0x00, 0x00,
  0x00, 0x00, 0x00, 0x00, 0x00, 0x00, 0x00, 0x00, 0x00, 0x00, 0x00, 0x00,
  0x00, 0x00, 0x00, 0x00, 0x00, 0x00, 0x00, 0x00, 0x00, 0x00, 0x00, 0x00,
  0x00, 0x00, 0x00, 0x00, 0x00, 0x00, 0x00, 0x00, 0x00, 0x00, 0x00, 0x00,
  0x00, 0x00, 0x00, 0x00, 0x00, 0x00, 0x00, 0x00, 0x00, 0x00, 0x00, 0x00,
  0x00, 0x00, 0x00, 0x00, 0x00, 0x00, 0x00, 0x00, 0x00, 0x00, 0x00, 0x00,
  0x00, 0x00, 0x00, 0x00, 0x00, 0x00, 0x00, 0x00, 0x00, 0x00, 0x00, 0x00,
  0x00, 0x00, 0x00, 0x00, 0x00, 0x00, 0x00, 0x00, 0x00, 0x00, 0x00, 0x00,
  0x00, 0x00, 0x00, 0x00, 0x00, 0x00, 0x00, 0x00, 0x00, 0x00, 0x00, 0x00,
  0x00, 0x00, 0x00, 0x00, 0x00, 0x00, 0x00, 0x00, 0x00, 0x00, 0x00, 0x00,
  0x00, 0x00, 0x00, 0x00, 0x00, 0x00, 0x00, 0x00, 0x00, 0x00, 0x00, 0x00,
  0x00, 0x00, 0x00, 0x00, 0x00, 0x00, 0x00, 0x00, 0x00, 0x00, 0x00, 0x00,
  0x00, 0x00, 0x00, 0x00, 0x00, 0x00, 0x00, 0x00, 0x00, 0x00, 0x00, 0x00,
  0x00, 0x00, 0x00, 0x00, 0x00, 0x00, 0x00, 0x00, 0x00, 0x00, 0x00, 0x00,
  0x00, 0x00, 0x00, 0x00, 0x00, 0x00, 0x00, 0x00, 0x00, 0x00, 0x00, 0x00,
  0x00, 0x00, 0x00, 0x00, 0x00, 0x00, 0x00, 0x00, 0x00, 0x00, 0x00, 0x00,
  0x00, 0x00, 0x00, 0x00, 0x00, 0x00, 0x00, 0x00, 0x00, 0x00, 0x00, 0x00,
  0x00, 0x00, 0x00, 0x00, 0x00, 0x00, 0x00, 0x00, 0x00, 0x00, 0x00, 0x00,
  0x00, 0x00, 0x00, 0x00, 0x00, 0x00, 0x00, 0x00, 0x00, 0x00, 0x00, 0x00,
  0x00, 0x00, 0x00, 0x00, 0x00, 0x00, 0x00, 0x00, 0x00, 0x00, 0x00, 0x00,
  0x00, 0x00, 0x00, 0x00, 0x00, 0x00, 0x00, 0x00, 0x00, 0x00, 0x00, 0x00,
  0x00, 0x00, 0x00, 0x00, 0x00, 0x00, 0x00, 0x00, 0x00, 0x00, 0x00, 0x00,
  0x00, 0x00, 0x00, 0x00, 0x00, 0x00, 0x00, 0x00, 0x00, 0x00, 0x00, 0x00,
  0x00, 0x00, 0x00, 0x00, 0x00, 0x00, 0x00, 0x00, 0x00, 0x00, 0x00, 0x00,
  0x00, 0x00, 0x00, 0x00, 0xe5, 0xf1, 0xe5, 0xed, 0x00, 0x00, 0xe7, 0xd1,
  0x02, 0x00, 0xe1, 0xef, 0xfe, 0x04, 0xe9, 0xf9, 0xff, 0x0d, 0xcd, 0xeb,
  0xdd, 0xf9, 0xe2, 0xf1, 0xfb, 0x00, 0xeb, 0xd1, 0xff, 0xff, 0xde, 0xf0,
  0xfe, 0x06, 0xf8, 0xf9, 0x01, 0x0b, 0xd6, 0xd0, 0xdc, 0xf2, 0xe9, 0xec,
  0xfa, 0x01, 0xde, 0xe0, 0x05, 0x00, 0xee, 0xfe, 0x00, 0x07, 0xfc, 0x02,
  0x00, 0x13, 0xc4, 0xfd, 0xf8, 0xf5, 0xd2, 0xe8, 0xfa, 0x00, 0xd9, 0xce,
  0xfd, 0x11, 0xec, 0xea, 0xff, 0x06, 0xed, 0x0d, 0xff, 0x0d, 0xd6, 0xd5,
  0xce, 0xf5, 0xe6, 0xfd, 0xfa, 0xff, 0xe5, 0xcd, 0x06, 0x14, 0xf5, 0xd9,
  0xfa, 0x00, 0xed, 0xf8, 0xfd, 0xce, 0xd8, 0x02, 0xd4, 0xfc, 0xe3, 0xfa,
  0xf9, 0xfd, 0xe8, 0xd7, 0x03, 0x0d, 0xfa, 0xfa, 0xfd, 0x06, 0xf0, 0x0c,
  0xfd, 0xca, 0xd1, 0xda, 0x81, 0x03, 0xf8, 0xe0, 0xe4, 0x03, 0xf4, 0xde,
  0xe4, 0x0e, 0x00, 0xf2, 0xee, 0x03, 0x13, 0x12, 0xfe, 0xc6, 0xe5, 0xea,
  0xa4, 0xfa, 0xf6, 0xc2, 0x02, 0x00, 0xf5, 0xe0, 0x03, 0x0a, 0xe8, 0xfd,
  0xc0, 0xf4, 0xec, 0x20, 0xff, 0xbe, 0x08, 0xfc, 0xe7, 0xf5, 0xfb, 0xe9,
  0xee, 0xfe, 0xea, 0xce, 0xfe, 0xfe, 0xea, 0xed, 0xf3, 0xe3, 0xee, 0x08,
  0xff, 0xce, 0xaa, 0xdc, 0xd0, 0xf8, 0x0f, 0xed, 0xe0, 0xfc, 0xf6, 0xef,
  0xf5, 0x05, 0xe5, 0x03, 0xfe, 0x03, 0x0f, 0xfb, 0xf7, 0xd8, 0xee, 0x03,
  0x99, 0xff, 0x02, 0xf7, 0xe0, 0x06, 0xe8, 0xcf, 0xf9, 0x05, 0xee, 0xfc,
  0xf7, 0x07, 0x00, 0xf9, 0xec, 0xdb, 0xcb, 0x05, 0xab, 0x25, 0x13, 0x00,
  0xdc, 0x08, 0x01, 0xfb, 0x07, 0x07, 0xf7, 0xf7, 0x00, 0xf0, 0xfc, 0xe2,
  0xf8, 0x05, 0xe8, 0xe7, 0xb4, 0x04, 0x09, 0x13, 0xcf, 0x11, 0xed, 0xe5,
  0xf5, 0xf6, 0xf4, 0xf9, 0xeb, 0x0f, 0xf3, 0xfe, 0xe9, 0xca, 0xdd, 0x1f,
  0xed, 0xeb, 0x0e, 0x13, 0xea, 0x0c, 0xdd, 0xed, 0xf7, 0xfa, 0xf2, 0xfa,
  0xf7, 0xdc, 0xe2, 0xf9, 0xdd, 0xe3, 0xea, 0xe8, 0xf3, 0x0a, 0xed, 0x07,
  0x12, 0x07, 0xd4, 0xdc, 0xec, 0xfe, 0xe4, 0xde, 0xfa, 0x07, 0xd9, 0x02,
  0xe4, 0x05, 0xed, 0xcb, 0xda, 0xe2, 0xf7, 0xee, 0x87, 0x04, 0xee, 0xf0,
  0xea, 0xf3, 0xe6, 0xd8, 0xfc, 0x02, 0xda, 0xdd, 0xf4, 0x21, 0xef, 0x0e,
  0xe7, 0xd5, 0x07, 0xe3, 0xac, 0x01, 0xfa, 0xee, 0xf0, 0xe3, 0xc7, 0xe1,
  0xf3, 0x05, 0xcf, 0xeb, 0xf5, 0x23, 0x11, 0xda, 0xf1, 0x02, 0x18, 0xf8,
  0x9a, 0x02, 0xdc, 0xe2, 0xf6, 0xe5, 0xd5, 0xf8, 0xe9, 0xe9, 0x00, 0x09,
  0xff, 0x10, 0xe7, 0xae, 0xdf, 0xf2, 0x10, 0xf5, 0xb6, 0xff, 0xde, 0xf3,
  0x01, 0x03, 0x05, 0xce, 0xfc, 0xb6, 0xc9, 0xe9, 0xfe, 0xfe, 0xce, 0xfd,
  0x09, 0xce, 0x07, 0xf9, 0xcd, 0x00, 0xdb, 0xd9, 0x02, 0x0a, 0xcb, 0xd5,
  0xef, 0xc8, 0xf6, 0xdf, 0xff, 0xe8, 0xc0, 0x00, 0xfe, 0xc3, 0xf3, 0xfb,
  0xf2, 0x05, 0xdb, 0xd9, 0x02, 0xd4, 0xd4, 0x08, 0xf9, 0xf3, 0xed, 0x1b,
  0xfe, 0xda, 0xca, 0xd6, 0x0a, 0xd1, 0xe7, 0x08, 0xfe, 0x03, 0xed, 0xf5,
  0x03, 0xd3, 0x03, 0xe0, 0x08, 0x06, 0x01, 0x16, 0xf8, 0xd5, 0xf0, 0xea,
  0xf4, 0xcf, 0xe3, 0xf1, 0xf8, 0x04, 0xea, 0xe6, 0x02, 0xe2, 0xec, 0xd4,
  0x01, 0x1b, 0xff, 0x13, 0x04, 0xdc, 0xe1, 0xe2, 0xe9, 0xda, 0xf8, 0xed,
  0xee, 0xf6, 0x0c, 0xe8, 0xe6, 0xfe, 0xdf, 0xeb, 0x03, 0x17, 0xfb, 0x17,
  0xfa, 0xe0, 0xdf, 0xc5, 0xe5, 0xfd, 0xd5, 0xd4, 0xf9, 0xee, 0xf1, 0xea,
  0xde, 0xfb, 0xe1, 0xed, 0x06, 0x2b, 0x02, 0x11, 0xeb, 0xe5, 0xfa, 0x0b,
  0x06, 0xf2, 0xde, 0xfc, 0xff, 0x01, 0xda, 0xf4, 0xfd, 0x03, 0x03, 0x07,
  0x02, 0x25, 0xfe, 0x24, 0xf5, 0xe7, 0xc3, 0xde, 0xf5, 0xd9, 0xf3, 0xe6,
  0xf9, 0xd5, 0xd7, 0xf8, 0xfd, 0x06, 0xd2, 0xe4, 0xf1, 0x1c, 0x18, 0x12,
  0xf4, 0xe9, 0xd8, 0x08, 0xfa, 0xe5, 0xd6, 0xf7, 0xfc, 0xf2, 0xb7, 0xeb,
  0xff, 0x02, 0xf1, 0xee, 0x00, 0x18, 0x08, 0x22, 0xf8, 0xe9, 0xd8, 0xe8,
  0x08, 0xf4, 0x15, 0x02, 0xf8, 0x06, 0xeb, 0xd2, 0x0e, 0x01, 0xef, 0x04,
  0x09, 0x0f, 0xfe, 0x18, 0xfe, 0x08, 0xe4, 0xf0, 0x09, 0xfa, 0xee, 0xea,
  0xf9, 0x00, 0xd0, 0xf3, 0x00, 0xff, 0x00, 0xec, 0xfa, 0x0a, 0xf8, 0x0b,
  0xff, 0xfd, 0xe6, 0xee, 0x17, 0xe5, 0xfb, 0xc7, 0x11, 0x01, 0xdb, 0xd4,
  0x03, 0x02, 0xe8, 0xf9, 0x0a, 0x02, 0xf4, 0x05, 0xeb, 0x13, 0xc1, 0xd5,
  0x00, 0x00, 0x00, 0x00, 0x00, 0x00, 0x00, 0x00, 0x00, 0x00, 0x00, 0x00,
  0x00, 0x00, 0x00, 0x00, 0x00, 0x00, 0x00, 0x00, 0x00, 0x00, 0x00, 0x00,
  0x00, 0x00, 0x00, 0x00, 0x00, 0x00, 0x00, 0x00, 0x00, 0x00, 0x00, 0x00,
  0x00, 0x00, 0x00, 0x00, 0x00, 0x00, 0x00, 0x00, 0x00, 0x00, 0x00, 0x00,
  0x00, 0x00, 0x00, 0x00, 0x00, 0x00, 0x00, 0x00, 0x00, 0x00, 0x00, 0x00,
  0x00, 0x00, 0x00, 0x00, 0x00, 0x00, 0x00, 0x00, 0x00, 0x00, 0x00, 0x00,
  0x00, 0x00, 0x00, 0x00, 0x00, 0x00, 0x00, 0x00, 0x00, 0x00, 0x00, 0x00,
  0x00, 0x00, 0x00, 0x00, 0x00, 0x00, 0x00, 0x00, 0x00, 0x00, 0x00, 0x00,
  0x00, 0x00, 0x00, 0x00, 0x00, 0x00, 0x00, 0x00, 0x00, 0x00, 0x00, 0x00,
  0x00, 0x00, 0x00, 0x00, 0x00, 0x00, 0x00, 0x00, 0x00, 0x00, 0x00, 0x00,
  0x00, 0x00, 0x00, 0x00, 0x00, 0x00, 0x00, 0x00, 0x00, 0x00, 0x00, 0x00,
  0x00, 0x00, 0x00, 0x00, 0x00, 0x00, 0x00, 0x00, 0x00, 0x00, 0x00, 0x00,
  0x00, 0x00, 0x00, 0x00, 0x00, 0x00, 0x00, 0x00, 0x00, 0x00, 0x00, 0x00,
  0x00, 0x00, 0x00, 0x00, 0x00, 0x00, 0x00, 0x00, 0x00, 0x00, 0x00, 0x00,
  0x00, 0x00, 0x00, 0x00, 0x00, 0x00, 0x00, 0x00, 0x00, 0x00, 0x00, 0x00,
  0x00, 0x00, 0x00, 0x00, 0x00, 0x00, 0x00, 0x00, 0x00, 0x00, 0x00, 0x00,
  0x00, 0x00, 0x00, 0x00, 0x00, 0x00, 0x00, 0x00, 0x00, 0x00, 0x00, 0x00,
  0x00, 0x00, 0x00, 0x00, 0x00, 0x00, 0x00, 0x00, 0x00, 0x00, 0x00, 0x00,
  0x00, 0x00, 0x00, 0x00, 0x00, 0x00, 0x00, 0x00, 0x00, 0x00, 0x00, 0x00,
  0x00, 0x00, 0x00, 0x00, 0x00, 0x00, 0x00, 0x00, 0x00, 0x00, 0x00, 0x00,
  0x00, 0x00, 0x00, 0x00, 0x00, 0x00, 0x00, 0x00, 0x00, 0x00, 0x00, 0x00,
  0x00, 0x00, 0x00, 0x00, 0x00, 0x00, 0x00, 0x00, 0x00, 0x00, 0x00, 0x00,
  0x00, 0x00, 0x00, 0x00, 0x00, 0x00, 0x00, 0x00, 0x00, 0x00, 0x00, 0x00,
  0x00, 0x00, 0x00, 0x00, 0x00, 0x00, 0x00, 0x00, 0x00, 0x00, 0x00, 0x00,
  0x00, 0x00, 0x00, 0x00, 0x00, 0x00, 0x00, 0x00, 0x00, 0x00, 0x00, 0x00,
  0x00, 0x00, 0x00, 0x00, 0x00, 0x00, 0x00, 0x00, 0x00, 0x00, 0x00, 0x00,
  0x00, 0x00, 0x00, 0x00, 0x00, 0x00, 0x00, 0x00, 0x00, 0x00, 0x00, 0x00,
  0x00, 0x00, 0x00, 0x00, 0x00, 0x00, 0x00, 0x00, 0x00, 0x00, 0x00, 0x00,
  0x00, 0x00, 0x00, 0x00, 0x00, 0x00, 0x00, 0x00, 0x00, 0x00, 0x00, 0x00,
  0x00, 0x00, 0x00, 0x00, 0x00, 0x00, 0x00, 0x00, 0x00, 0x00, 0x00, 0x00,
  0x00, 0x00, 0x00, 0x00, 0x00, 0x00, 0x00, 0x00, 0x00, 0x00, 0x00, 0x00,
  0x00, 0x00, 0x00, 0x00, 0x00, 0x00, 0x00, 0x00, 0x00, 0x00, 0x00, 0x00,
  0x00, 0x00, 0x00, 0x00, 0x00, 0x00, 0x00, 0x00, 0x00, 0x00, 0x00, 0x00,
  0x00, 0x00, 0x00, 0x00, 0x00, 0x00, 0x00, 0x00, 0x00, 0x00, 0x00, 0x00,
  0x00, 0x00, 0x00, 0x00, 0x00, 0x00, 0x00, 0x00, 0x00, 0x00, 0x00, 0x00,
  0x00, 0x00, 0x00, 0x00, 0x00, 0x00, 0x00, 0x00, 0x00, 0x00, 0x00, 0x00,
  0x00, 0x00, 0x00, 0x00, 0x00, 0x00, 0x00, 0x00, 0x00, 0x00, 0x00, 0x00,
  0x00, 0x00, 0x00, 0x00, 0x00, 0x00, 0x00, 0x00, 0x00, 0x00, 0x00, 0x00,
  0x00, 0x00, 0x00, 0x00, 0x00, 0x00, 0x00, 0x00, 0x00, 0x00, 0x00, 0x00,
  0x00, 0x00, 0x00, 0x00, 0x00, 0x00, 0x00, 0x00, 0x00, 0x00, 0x00, 0x00,
  0x00, 0x00, 0x00, 0x00, 0x00, 0x00, 0x00, 0x00, 0x00, 0x00, 0x00, 0x00,
  0x00, 0x00, 0x00, 0x00, 0x00, 0x00, 0x00, 0x00, 0x00, 0x00, 0x00, 0x00,
  0x00, 0x00, 0x00, 0x00, 0x00, 0x00, 0x00, 0x00, 0x00, 0x00, 0x00, 0x00,
  0x00, 0x00, 0x00, 0x00, 0x00, 0x00, 0x00, 0x00, 0x00, 0x00, 0x00, 0x00,
  0x00, 0x00, 0x00, 0x00, 0x00, 0x00, 0x00, 0x00, 0x00, 0x00, 0x00, 0x00,
  0x00, 0x00, 0x00, 0x00, 0x00, 0x00, 0x00, 0x00, 0x00, 0x00, 0x00, 0x00,
  0x00, 0x00, 0x00, 0x00, 0x00, 0x00, 0x00, 0x00, 0x00, 0x00, 0x00, 0x00,
  0x00, 0x00, 0x00, 0x00, 0x00, 0x00, 0x00, 0x00, 0x00, 0x00, 0x00, 0x00,
  0x00, 0x00, 0x00, 0x00, 0x00, 0x00, 0x00, 0x00, 0x00, 0x00, 0x00, 0x00,
  0x00, 0x00, 0x00, 0x00, 0x00, 0x00, 0x00, 0x00, 0x00, 0x00, 0x00, 0x00,
  0x00, 0x00, 0x00, 0x00, 0x00, 0x00, 0x00, 0x00, 0x00, 0x00, 0x00, 0x00,
  0x00, 0x00, 0x00, 0x00, 0x00, 0x00, 0x00, 0x00, 0x00, 0x00, 0x00, 0x00,
  0x00, 0x00, 0x00, 0x00, 0x00, 0x00, 0x00, 0x00, 0x00, 0x00, 0x00, 0x00,
  0x00, 0x00, 0x00, 0x00, 0x00, 0x00, 0x00, 0x00, 0x00, 0x00, 0x00, 0x00,
  0x00, 0x00, 0x00, 0x00, 0x00, 0x00, 0x00, 0x00, 0x00, 0x00, 0x00, 0x00,
  0x00, 0x00, 0x00, 0x00, 0x00, 0x00, 0x00, 0x00, 0x00, 0x00, 0x00, 0x00,
  0x00, 0x00, 0x00, 0x00, 0x00, 0x00, 0x00, 0x00, 0x00, 0x00, 0x00, 0x00,
  0x00, 0x00, 0x00, 0x00, 0x00, 0x00, 0x00, 0x00, 0x00, 0x00, 0x00, 0x00,
  0x00, 0x00, 0x00, 0x00, 0x00, 0x00, 0x00, 0x00, 0x00, 0x00, 0x00, 0x00,
  0x00, 0x00, 0x00, 0x00, 0x00, 0x00, 0x00, 0x00, 0x00, 0x00, 0x00, 0x00,
  0x00, 0x00, 0x00, 0x00, 0x00, 0x00, 0x00, 0x00, 0x00, 0x00, 0x00, 0x00,
  0x00, 0x00, 0x00, 0x00, 0x00, 0x00, 0x00, 0x00, 0x00, 0x00, 0x00, 0x00,
  0x00, 0x00, 0x00, 0x00, 0x00, 0x00, 0x00, 0x00, 0x00, 0x00, 0x00, 0x00,
  0x00, 0x00, 0x00, 0x00, 0x00, 0x00, 0x00, 0x00, 0x00, 0x00, 0x00, 0x00,
  0x00, 0x00, 0x00, 0x00, 0x00, 0x00, 0x00, 0x00, 0x00, 0x00, 0x00, 0x00,
  0x00, 0x00, 0x00, 0x00, 0x00, 0x00, 0x00, 0x00, 0x00, 0x00, 0x00, 0x00,
  0x00, 0x00, 0x00, 0x00, 0x00, 0x00, 0x00, 0x00, 0x00, 0x00, 0x00, 0x00,
  0x00, 0x00, 0x00, 0x00, 0x00, 0x00, 0x00, 0x00, 0x00, 0x00, 0x00, 0x00,
  0x00, 0x00, 0x00, 0x00, 0x00, 0x00, 0x00, 0x00, 0x00, 0x00, 0x00, 0x00,
  0x00, 0x00, 0x00, 0x00, 0x00, 0x00, 0x00, 0x00, 0x00, 0x00, 0x00, 0x00,
  0x00, 0x00, 0x00, 0x00, 0x00, 0x00, 0x00, 0x00, 0x00, 0x00, 0x00, 0x00,
  0x00, 0x00, 0x00, 0x00, 0x00, 0x00, 0x00, 0x00, 0x00, 0x00, 0x00, 0x00,
  0x00, 0x00, 0x00, 0x00, 0x00, 0x00, 0x00, 0x00, 0x00, 0x00, 0x00, 0x00,
  0x00, 0x00, 0x00, 0x00, 0x00, 0x00, 0x00, 0x00, 0x00, 0x00, 0x00, 0x00,
  0x00, 0x00, 0x00, 0x00, 0x00, 0x00, 0x00, 0x00, 0x00, 0x00, 0x00, 0x00,
  0x00, 0x00, 0x00, 0x00, 0x00, 0x00, 0x00, 0x00, 0x00, 0x00, 0x00, 0x00,
  0x00, 0x00, 0x00, 0x00, 0x00, 0x00, 0x00, 0x00, 0x00, 0x00, 0x00, 0x00,
  0x00, 0x00, 0x00, 0x00, 0x00, 0x00, 0x00, 0x00, 0x00, 0x00, 0x00, 0x00,
  0x00, 0x00, 0x00, 0x00, 0x00, 0x00, 0x00, 0x00, 0x00, 0x00, 0x00, 0x00,
  0x00, 0x00, 0x00, 0x00, 0x00, 0x00, 0x00, 0x00, 0x00, 0x00, 0x00, 0x00,
  0x00, 0x00, 0x00, 0x00, 0x00, 0x00, 0x00, 0x00, 0x00, 0x00, 0x00, 0x00,
  0x00, 0x00, 0x00, 0x00, 0x00, 0x00, 0x00, 0x00, 0x00, 0x00, 0x00, 0x00,
  0x00, 0x00, 0x00, 0x00, 0x00, 0x00, 0x00, 0x00, 0x00, 0x00, 0x00, 0x00,
  0x00, 0x00, 0x00, 0x00, 0x00, 0x00, 0x00, 0x00, 0x00, 0x00, 0x00, 0x00,
  0x00, 0x00, 0x00, 0x00, 0x00, 0x00, 0x00, 0x00, 0x00, 0x00, 0x00, 0x00,
  0x00, 0x00, 0x00, 0x00, 0x00, 0x00, 0x00, 0x00, 0x00, 0x00, 0x00, 0x00,
  0x00, 0x00, 0x00, 0x00, 0x00, 0x00, 0x00, 0x00, 0x00, 0x00, 0x00, 0x00,
  0x00, 0x00, 0x00, 0x00, 0x00, 0x00, 0x00, 0x00, 0x00, 0x00, 0x00, 0x00,
  0x00, 0x00, 0x00, 0x00, 0x00, 0x00, 0x00, 0x00, 0x00, 0x00, 0x00, 0x00,
  0x00, 0x00, 0x00, 0x00, 0x00, 0x00, 0x00, 0x00, 0x00, 0x00, 0x00, 0x00,
  0x00, 0x00, 0x00, 0x00, 0x00, 0x00, 0x00, 0x00, 0x00, 0x00, 0x00, 0x00,
  0x00, 0x00, 0x00, 0x00, 0x00, 0x00, 0x00, 0x00, 0x00, 0x00, 0x00, 0x00,
  0x00, 0x00, 0x00, 0x00, 0x00, 0x00, 0x00, 0x00, 0x00, 0x00, 0x00, 0x00,
  0x00, 0x00, 0x00, 0x00, 0x00, 0x00, 0x00, 0x00, 0x00, 0x00, 0x00, 0x00,
  0x00, 0x00, 0x00, 0x00, 0x00, 0x00, 0x00, 0x00, 0x00, 0x00, 0x00, 0x00,
  0x00, 0x00, 0x00, 0x00, 0x00, 0x00, 0x00, 0x00, 0x00, 0x00, 0x00, 0x00,
  0x00, 0x00, 0x00, 0x00, 0x00, 0x00, 0x00, 0x00, 0x00, 0x00, 0x00, 0x00,
  0x00, 0x00, 0x00, 0x00, 0x00, 0x00, 0x00, 0x00, 0x00, 0x00, 0x00, 0x00,
  0x00, 0x00, 0x00, 0x00, 0x00, 0x00, 0x00, 0x00, 0x00, 0x00, 0x00, 0x00,
  0x00, 0x00, 0x00, 0x00, 0x00, 0x00, 0x00, 0x00, 0x00, 0x00, 0x00, 0x00,
  0x00, 0x00, 0x00, 0x00, 0x00, 0x00, 0x00, 0x00, 0x00, 0x00, 0x00, 0x00,
  0x00, 0x00, 0x00, 0x00, 0x00, 0x00, 0x00, 0x00, 0x00, 0x00, 0x00, 0x00,
  0x00, 0x00, 0x00, 0x00, 0x00, 0x00, 0x00, 0x00, 0x00, 0x00, 0x00, 0x00,
  0x00, 0x00, 0x00, 0x00, 0x00, 0x00, 0x00, 0x00, 0x00, 0x00, 0x00, 0x00,
  0x00, 0x00, 0x00, 0x00, 0x00, 0x00, 0x00, 0x00, 0x00, 0x00, 0x00, 0x00,
  0x00, 0x00, 0x00, 0x00, 0x00, 0x00, 0x00, 0x00, 0x00, 0x00, 0x00, 0x00,
  0x00, 0x00, 0x00, 0x00, 0x00, 0x00, 0x00, 0x00, 0x00, 0x00, 0x00, 0x00,
  0x00, 0x00, 0x00, 0x00, 0x00, 0x00, 0x00, 0x00, 0x00, 0x00, 0x00, 0x00,
  0x00, 0x00, 0x00, 0x00, 0x00, 0x00, 0x00, 0x00, 0x00, 0x00, 0x00, 0x00,
  0x00, 0x00, 0x00, 0x00, 0x00, 0x00, 0x00, 0x00, 0x00, 0x00, 0x00, 0x00,
  0x00, 0x00, 0x00, 0x00, 0x00, 0x00, 0x00, 0x00, 0x00, 0x00, 0x00, 0x00,
  0x00, 0x00, 0x00, 0x00, 0x00, 0x00, 0x00, 0x00, 0x00, 0x00, 0x00, 0x00,
  0x00, 0x00, 0x00, 0x00, 0x00, 0x00, 0x00, 0x00, 0x00, 0x00, 0x00, 0x00,
  0x00, 0x00, 0x00, 0x00, 0x00, 0x00, 0x00, 0x00, 0x00, 0x00, 0x00, 0x00,
  0x00, 0x00, 0x00, 0x00, 0x00, 0x00, 0x00, 0x00, 0x00, 0x00, 0x00, 0x00,
  0x00, 0x00, 0x00, 0x00, 0x00, 0x00, 0x00, 0x00, 0x00, 0x00, 0x00, 0x00,
  0x00, 0x00, 0x00, 0x00, 0x00, 0x00, 0x00, 0x00, 0x00, 0x00, 0x00, 0x00,
  0x00, 0x00, 0x00, 0x00, 0x00, 0x00, 0x00, 0x00, 0x00, 0x00, 0x00, 0x00,
  0x00, 0x00, 0x00, 0x00, 0x00, 0x00, 0x00, 0x00, 0x00, 0x00, 0x00, 0x00,
  0x00, 0x00, 0x00, 0x00, 0x00, 0x00, 0x00, 0x00, 0x00, 0x00, 0x00, 0x00,
  0x00, 0x00, 0x00, 0x00, 0x00, 0x00, 0x00, 0x00, 0x00, 0x00, 0x00, 0x00,
  0x00, 0x00, 0x00, 0x00, 0x00, 0x00, 0x00, 0x00, 0x00, 0x00, 0x00, 0x00,
  0x00, 0x00, 0x00, 0x00, 0x00, 0x00, 0x00, 0x00, 0x00, 0x00, 0x00, 0x00,
  0x00, 0x00, 0x00, 0x00, 0x00, 0x00, 0x00, 0x00, 0x00, 0x00, 0x00, 0x00,
  0x00, 0x00, 0x00, 0x00, 0x00, 0x00, 0x00, 0x00, 0x00, 0x00, 0x00, 0x00,
  0x00, 0x00, 0x00, 0x00, 0x00, 0x00, 0x00, 0x00, 0x00, 0x00, 0x00, 0x00,
  0x00, 0x00, 0x00, 0x00, 0x00, 0x00, 0x00, 0x00, 0x00, 0x00, 0x00, 0x00,
  0x00, 0x00, 0x00, 0x00, 0x00, 0x00, 0x00, 0x00, 0x00, 0x00, 0x00, 0x00,
  0x00, 0x00, 0x00, 0x00, 0x00, 0x00, 0x00, 0x00, 0x00, 0x00, 0x00, 0x00,
  0x00, 0x00, 0x00, 0x00, 0x00, 0x00, 0x00, 0x00, 0x00, 0x00, 0x00, 0x00,
  0x00, 0x00, 0x00, 0x00, 0x00, 0x00, 0x00, 0x00, 0x00, 0x00, 0x00, 0x00,
  0x00, 0x00, 0x00, 0x00, 0x00, 0x00, 0x00, 0x00, 0x00, 0x00, 0x00, 0x00,
  0x00, 0x00, 0x00, 0x00, 0x00, 0x00, 0x00, 0x00, 0x00, 0x00, 0x00, 0x00,
  0x00, 0x00, 0x00, 0x00, 0x00, 0x00, 0x00, 0x00, 0x00, 0x00, 0x00, 0x00,
  0x00, 0x00, 0x00, 0x00, 0x00, 0x00, 0x00, 0x00, 0x00, 0x00, 0x00, 0x00,
  0x00, 0x00, 0x00, 0x00, 0x00, 0x00, 0x00, 0x00, 0x00, 0x00, 0x00, 0x00,
  0x00, 0x00, 0x00, 0x00, 0x00, 0x00, 0x00, 0x00, 0x00, 0x00, 0x00, 0x00,
  0x00, 0x00, 0x00, 0x00, 0x00, 0x00, 0x00, 0x00, 0x00, 0x00, 0x00, 0x00,
  0x00, 0x00, 0x00, 0x00, 0x00, 0x00, 0x00, 0x00, 0x00, 0x00, 0x00, 0x00,
  0x00, 0x00, 0x00, 0x00, 0x00, 0x00, 0x00, 0x00, 0x00, 0x00, 0x00, 0x00,
  0x00, 0x00, 0x00, 0x00, 0x00, 0x00, 0x00, 0x00, 0x00, 0x00, 0x00, 0x00,
  0x00, 0x00, 0x00, 0x00, 0x00, 0x00, 0x00, 0x00, 0x00, 0x00, 0x00, 0x00,
  0x00, 0x00, 0x00, 0x00, 0x00, 0x00, 0x00, 0x00, 0x00, 0x00, 0x00, 0x00,
  0x00, 0x00, 0x00, 0x00, 0x00, 0x00, 0x00, 0x00, 0x00, 0x00, 0x00, 0x00,
  0x00, 0x00, 0x00, 0x00, 0x00, 0x00, 0x00, 0x00, 0x00, 0x00, 0x00, 0x00,
  0x00, 0x00, 0x00, 0x00, 0x00, 0x00, 0x00, 0x00, 0x00, 0x00, 0x00, 0x00,
  0x00, 0x00, 0x00, 0x00, 0x00, 0x00, 0x00, 0x00, 0x00, 0x00, 0x00, 0x00,
  0x00, 0x00, 0x00, 0x00, 0x00, 0x00, 0x00, 0x00, 0x00, 0x00, 0x00, 0x00,
  0x00, 0x00, 0x00, 0x00, 0x00, 0x00, 0x00, 0x00, 0x00, 0x00, 0x00, 0x00,
  0x00, 0x00, 0x00, 0x00, 0x00, 0x00, 0x00, 0x00, 0x00, 0x00, 0x00, 0x00,
  0x00, 0x00, 0x00, 0x00, 0x00, 0x00, 0x00, 0x00, 0x00, 0x00, 0x00, 0x00,
  0x00, 0x00, 0x00, 0x00, 0x00, 0x00, 0x00, 0x00, 0x00, 0x00, 0x00, 0x00,
  0x00, 0x00, 0x00, 0x00, 0x00, 0x00, 0x00, 0x00, 0x00, 0x00, 0x00, 0x00,
  0x00, 0x00, 0x00, 0x00, 0x00, 0x00, 0x00, 0x00, 0x00, 0x00, 0x00, 0x00,
  0x00, 0x00, 0x00, 0x00, 0x00, 0x00, 0x00, 0x00, 0x00, 0x00, 0x00, 0x00,
  0x00, 0x00, 0x00, 0x00, 0x00, 0x00, 0x00, 0x00, 0x00, 0x00, 0x00, 0x00,
  0x00, 0x00, 0x00, 0x00, 0x00, 0x00, 0x00, 0x00, 0x00, 0x00, 0x00, 0x00,
  0x00, 0x00, 0x00, 0x00, 0x00, 0x00, 0x00, 0x00, 0x00, 0x00, 0x00, 0x00,
  0x00, 0x00, 0x00, 0x00, 0x00, 0x00, 0x00, 0x00, 0x00, 0x00, 0x00, 0x00,
  0x00, 0x00, 0x00, 0x00, 0x00, 0x00, 0x00, 0x00, 0x00, 0x00, 0x00, 0x00,
  0x00, 0x00, 0x00, 0x00, 0x00, 0x00, 0x00, 0x00, 0x00, 0x00, 0x00, 0x00,
  0x00, 0x00, 0x00, 0x00, 0x00, 0x00, 0x00, 0x00, 0x00, 0x00, 0x00, 0x00,
  0x00, 0x00, 0x00, 0x00, 0x00, 0x00, 0x00, 0x00, 0x00, 0x00, 0x00, 0x00,
  0x00, 0x00, 0x00, 0x00, 0x00, 0x00, 0x00, 0x00, 0x00, 0x00, 0x00, 0x00,
  0x00, 0x00, 0x00, 0x00, 0x00, 0x00, 0x00, 0x00, 0x00, 0x00, 0x00, 0x00,
  0x00, 0x00, 0x00, 0x00, 0x00, 0x00, 0x00, 0x00, 0x00, 0x00, 0x00, 0x00,
  0x00, 0x00, 0x00, 0x00, 0x00, 0x00, 0x00, 0x00, 0x00, 0x00, 0x00, 0x00,
  0x00, 0x00, 0x00, 0x00, 0x00, 0x00, 0x00, 0x00, 0x00, 0x00, 0x00, 0x00,
  0x00, 0x00, 0x00, 0x00, 0x00, 0x00, 0x00, 0x00, 0x00, 0x00, 0x00, 0x00,
  0x00, 0x00, 0x00, 0x00, 0x00, 0x00, 0x00, 0x00, 0x00, 0x00, 0x00, 0x00,
  0x00, 0x00, 0x00, 0x00, 0x00, 0x00, 0x00, 0x00, 0x00, 0x00, 0x00, 0x00,
  0x00, 0x00, 0x00, 0x00, 0x00, 0x00, 0x00, 0x00, 0x00, 0x00, 0x00, 0x00,
  0x00, 0x00, 0x00, 0x00, 0x00, 0x00, 0x00, 0x00, 0x00, 0x00, 0x00, 0x00,
  0x00, 0x00, 0x00, 0x00, 0x00, 0x00, 0x00, 0x00, 0x00, 0x00, 0x00, 0x00,
  0x00, 0x00, 0x00, 0x00, 0x00, 0x00, 0x00, 0x00, 0x00, 0x00, 0x00, 0x00,
  0x00, 0x00, 0x00, 0x00, 0x00, 0x00, 0x00, 0x00, 0x00, 0x00, 0x00, 0x00,
  0x00, 0x00, 0x00, 0x00, 0x00, 0x00, 0x00, 0x00, 0x00, 0x00, 0x00, 0x00,
  0x00, 0x00, 0x00, 0x00, 0x00, 0x00, 0x00, 0x00, 0x00, 0x00, 0x00, 0x00,
  0x00, 0x00, 0x00, 0x00, 0x00, 0x00, 0x00, 0x00, 0x00, 0x00, 0x00, 0x00,
  0x00, 0x00, 0x00, 0x00, 0x00, 0x00, 0x00, 0x00, 0x00, 0x00, 0x00, 0x00,
  0x00, 0x00, 0x00, 0x00, 0x00, 0x00, 0x00, 0x00, 0x00, 0x00, 0x00, 0x00,
  0x00, 0x00, 0x00, 0x00, 0x00, 0x00, 0x00, 0x00, 0x00, 0x00, 0x00, 0x00,
  0x00, 0x00, 0x00, 0x00, 0x00, 0x00, 0x00, 0x00, 0x00, 0x00, 0x00, 0x00,
  0x00, 0x00, 0x00, 0x00, 0x00, 0x00, 0x00, 0x00, 0x00, 0x00, 0x00, 0x00,
  0x00, 0x00, 0x00, 0x00, 0x00, 0x00, 0x00, 0x00, 0x00, 0x00, 0x00, 0x00,
  0x00, 0x00, 0x00, 0x00, 0x00, 0x00, 0x00, 0x00, 0x00, 0x00, 0x00, 0x00,
  0x00, 0x00, 0x00, 0x00, 0x00, 0x00, 0x00, 0x00, 0x00, 0x00, 0x00, 0x00,
  0x00, 0x00, 0x00, 0x00, 0x00, 0x00, 0x00, 0x00, 0x00, 0x00, 0x00, 0x00,
  0x00, 0x00, 0x00, 0x00, 0x00, 0x00, 0x00, 0x00, 0x00, 0x00, 0x00, 0x00,
  0x00, 0x00, 0x00, 0x00, 0x00, 0x00, 0x00, 0x00, 0x00, 0x00, 0x00, 0x00,
  0x00, 0x00, 0x00, 0x00, 0x00, 0x00, 0x00, 0x00, 0x00, 0x00, 0x00, 0x00,
  0x00, 0x00, 0x00, 0x00, 0x00, 0x00, 0x00, 0x00, 0x00, 0x00, 0x00, 0x00,
  0x00, 0x00, 0x00, 0x00, 0x00, 0x00, 0x00, 0x00, 0x00, 0x00, 0x00, 0x00,
  0x00, 0x00, 0x00, 0x00, 0x00, 0x00, 0x00, 0x00, 0x00, 0x00, 0x00, 0x00,
  0x00, 0x00, 0x00, 0x00, 0x00, 0x00, 0x00, 0x00, 0x00, 0x00, 0x00, 0x00,
  0x00, 0x00, 0x00, 0x00, 0x00, 0x00, 0x00, 0x00, 0x00, 0x00, 0x00, 0x00,
  0x00, 0x00, 0x00, 0x00, 0x00, 0x00, 0x00, 0x00, 0x00, 0x00, 0x00, 0x00,
  0x00, 0x00, 0x00, 0x00, 0x00, 0x00, 0x00, 0x00, 0x00, 0x00, 0x00, 0x00,
  0x00, 0x00, 0x00, 0x00, 0x00, 0x00, 0x00, 0x00, 0x00, 0x00, 0x00, 0x00,
  0x00, 0x00, 0x00, 0x00, 0x00, 0x00, 0x00, 0x00, 0x00, 0x00, 0x00, 0x00,
  0x00, 0x00, 0x00, 0x00, 0x00, 0x00, 0x00, 0x00, 0x00, 0x00, 0x00, 0x00,
  0x00, 0x00, 0x00, 0x00, 0x00, 0x00, 0x00, 0x00, 0x00, 0x00, 0x00, 0x00,
  0x00, 0x00, 0x00, 0x00, 0x00, 0x00, 0x00, 0x00, 0x00, 0x00, 0x00, 0x00,
  0x00, 0x00, 0x00, 0x00, 0x00, 0x00, 0x00, 0x00, 0x00, 0x00, 0x00, 0x00,
  0x00, 0x00, 0x00, 0x00, 0x00, 0x00, 0x00, 0x00, 0x00, 0x00, 0x00, 0x00,
  0x00, 0x00, 0x00, 0x00, 0x00, 0x00, 0x00, 0x00, 0x00, 0x00, 0x00, 0x00,
  0x00, 0x00, 0x00, 0x00, 0x00, 0x00, 0x00, 0x00, 0x00, 0x00, 0x00, 0x00,
  0x00, 0x00, 0x00, 0x00, 0x00, 0x00, 0x00, 0x00, 0x00, 0x00, 0x00, 0x00,
  0x00, 0x00, 0x00, 0x00, 0x00, 0x00, 0x00, 0x00, 0x00, 0x00, 0x00, 0x00,
  0x00, 0x00, 0x00, 0x00, 0x00, 0x00, 0x00, 0x00, 0x00, 0x00, 0x00, 0x00,
  0x00, 0x00, 0x00, 0x00, 0x00, 0x00, 0x00, 0x00, 0x00, 0x00, 0x00, 0x00,
  0x00, 0x00, 0x00, 0x00, 0x00, 0x00, 0x00, 0x00, 0x00, 0x00, 0x00, 0x00,
  0x00, 0x00, 0x00, 0x00, 0x00, 0x00, 0x00, 0x00, 0x00, 0x00, 0x00, 0x00,
  0x00, 0x00, 0x00, 0x00, 0x00, 0x00, 0x00, 0x00, 0x00, 0x00, 0x00, 0x00,
  0x00, 0x00, 0x00, 0x00, 0x00, 0x00, 0x00, 0x00, 0x00, 0x00, 0x00, 0x00,
  0x00, 0x00, 0x00, 0x00, 0x00, 0x00, 0x00, 0x00, 0x00, 0x00, 0x00, 0x00,
  0x00, 0x00, 0x00, 0x00, 0x00, 0x00, 0x00, 0x00, 0x00, 0x00, 0x00, 0x00,
  0x00, 0x00, 0x00, 0x00, 0x00, 0x00, 0x00, 0x00, 0x00, 0x00, 0x00, 0x00,
  0x00, 0x00, 0x00, 0x00, 0x00, 0x00, 0x00, 0x00, 0x00, 0x00, 0x00, 0x00,
  0x00, 0x00, 0x00, 0x00, 0x00, 0x00, 0x00, 0x00, 0x00, 0x00, 0x00, 0x00,
  0x00, 0x00, 0x00, 0x00, 0x00, 0x00, 0x00, 0x00, 0x00, 0x00, 0x00, 0x00,
  0x00, 0x00, 0x00, 0x00, 0x00, 0x00, 0x00, 0x00, 0x00, 0x00, 0x00, 0x00,
  0x00, 0x00, 0x00, 0x00, 0x00, 0x00, 0x00, 0x00, 0x00, 0x00, 0x00, 0x00,
  0x00, 0x00, 0x00, 0x00, 0x00, 0x00, 0x00, 0x00, 0x00, 0x00, 0x00, 0x00,
  0x00, 0x00, 0x00, 0x00, 0x00, 0x00, 0x00, 0x00, 0x00, 0x00, 0x00, 0x00,
  0x00, 0x00, 0x00, 0x00, 0x00, 0x00, 0x00, 0x00, 0x00, 0x00, 0x00, 0x00,
  0x00, 0x00, 0x00, 0x00, 0x00, 0x00, 0x00, 0x00, 0x00, 0x00, 0x00, 0x00,
  0x00, 0x00, 0x00, 0x00, 0x00, 0x00, 0x00, 0x00, 0x00, 0x00, 0x00, 0x00,
  0x00, 0x00, 0x00, 0x00, 0x00, 0x00, 0x00, 0x00, 0x00, 0x00, 0x00, 0x00,
  0x00, 0x00, 0x00, 0x00, 0x00, 0x00, 0x00, 0x00, 0x00, 0x00, 0x00, 0x00,
  0x00, 0x00, 0x00, 0x00, 0x00, 0x00, 0x00, 0x00, 0x00, 0x00, 0x00, 0x00,
  0x00, 0x00, 0x00, 0x00, 0x00, 0x00, 0x00, 0x00, 0x00, 0x00, 0x00, 0x00,
  0x00, 0x00, 0x00, 0x00, 0x00, 0x00, 0x00, 0x00, 0x00, 0x00, 0x00, 0x00,
  0x00, 0x00, 0x00, 0x00, 0x00, 0x00, 0x00, 0x00, 0x00, 0x00, 0x00, 0x00,
  0x00, 0x00, 0x00, 0x00, 0x00, 0x00, 0x00, 0x00, 0x00, 0x00, 0x00, 0x00,
  0x00, 0x00, 0x00, 0x00, 0x00, 0x00, 0x00, 0x00, 0x00, 0x00, 0x00, 0x00,
  0x00, 0x00, 0x00, 0x00, 0x00, 0x00, 0x00, 0x00, 0x00, 0x00, 0x00, 0x00,
  0x00, 0x00, 0x00, 0x00, 0x00, 0x00, 0x00, 0x00, 0x00, 0x00, 0x00, 0x00,
  0x00, 0x00, 0x00, 0x00, 0x00, 0x00, 0x00, 0x00, 0x00, 0x00, 0x00, 0x00,
  0x00, 0x00, 0x00, 0x00, 0x00, 0x00, 0x00, 0x00, 0x00, 0x00, 0x00, 0x00,
  0x00, 0x00, 0x00, 0x00, 0x00, 0x00, 0x00, 0x00, 0x00, 0x00, 0x00, 0x00,
  0x00, 0x00, 0x00, 0x00, 0x00, 0x00, 0x00, 0x00, 0x00, 0x00, 0x00, 0x00,
  0x00, 0x00, 0x00, 0x00, 0x00, 0x00, 0x00, 0x00, 0x00, 0x00, 0x00, 0x00,
  0x00, 0x00, 0x00, 0x00, 0x00, 0x00, 0x00, 0x00, 0x00, 0x00, 0x00, 0x00,
  0x00, 0x00, 0x00, 0x00, 0x00, 0x00, 0x00, 0x00, 0x00, 0x00, 0x00, 0x00,
  0x00, 0x00, 0x00, 0x00, 0x00, 0x00, 0x00, 0x00, 0x00, 0x00, 0x00, 0x00,
  0x00, 0x00, 0x00, 0x00, 0x00, 0x00, 0x00, 0x00, 0x00, 0x00, 0x00, 0x00,
  0x00, 0x00, 0x00, 0x00, 0x00, 0x00, 0x00, 0x00, 0x00, 0x00, 0x00, 0x00,
  0x00, 0x00, 0x00, 0x00, 0x00, 0x00, 0x00, 0x00, 0x00, 0x00, 0x00, 0x00,
  0x00, 0x00, 0x00, 0x00, 0x00, 0x00, 0x00, 0x00, 0x00, 0x00, 0x00, 0x00,
  0x00, 0x00, 0x00, 0x00, 0x00, 0x00, 0x00, 0x00, 0x00, 0x00, 0x00, 0x00,
  0x00, 0x00, 0x00, 0x00, 0x00, 0x00, 0x00, 0x00, 0x00, 0x00, 0x00, 0x00,
  0x00, 0x00, 0x00, 0x00, 0x00, 0x00, 0x00, 0x00, 0x00, 0x00, 0x00, 0x00,
  0x00, 0x00, 0x00, 0x00, 0x00, 0x00, 0x00, 0x00, 0x00, 0x00, 0x00, 0x00,
  0x00, 0x00, 0x00, 0x00, 0x00, 0x00, 0x00, 0x00, 0x00, 0x00, 0x00, 0x00,
  0x00, 0x00, 0x00, 0x00, 0x00, 0x00, 0x00, 0x00, 0x00, 0x00, 0x00, 0x00,
  0x00, 0x00, 0x00, 0x00, 0x00, 0x00, 0x00, 0x00, 0x00, 0x00, 0x00, 0x00,
  0x00, 0x00, 0x00, 0x00, 0x00, 0x00, 0x00, 0x00, 0x00, 0x00, 0x00, 0x00,
  0x00, 0x00, 0x00, 0x00, 0x00, 0x00, 0x00, 0x00, 0x00, 0x00, 0x00, 0x00,
  0x00, 0x00, 0x00, 0x00, 0x00, 0x00, 0x00, 0x00, 0x00, 0x00, 0x00, 0x00,
  0x00, 0x00, 0x00, 0x00, 0x00, 0x00, 0x00, 0x00, 0x00, 0x00, 0x00, 0x00,
  0x00, 0x00, 0x00, 0x00, 0x00, 0x00, 0x00, 0x00, 0x00, 0x00, 0x00, 0x00,
  0x00, 0x00, 0x00, 0x00, 0x00, 0x00, 0x00, 0x00, 0x00, 0x00, 0x00, 0x00,
  0x00, 0x00, 0x00, 0x00, 0x00, 0x00, 0x00, 0x00, 0x00, 0x00, 0x00, 0x00,
  0x00, 0x00, 0x00, 0x00, 0x00, 0x00, 0x00, 0x00, 0x00, 0x00, 0x00, 0x00,
  0x00, 0x00, 0x00, 0x00, 0x00, 0x00, 0x00, 0x00, 0x00, 0x00, 0x00, 0x00,
  0x00, 0x00, 0x00, 0x00, 0x00, 0x00, 0x00, 0x00, 0x00, 0x00, 0x00, 0x00,
  0x00, 0x00, 0x00, 0x00, 0x00, 0x00, 0x00, 0x00, 0x00, 0x00, 0x00, 0x00,
  0x00, 0x00, 0x00, 0x00, 0x00, 0x00, 0x00, 0x00, 0x00, 0x00, 0x00, 0x00,
  0x00, 0x00, 0x00, 0x00, 0x00, 0x00, 0x00, 0x00, 0x00, 0x00, 0x00, 0x00,
  0x00, 0x00, 0x00, 0x00, 0x00, 0x00, 0x00, 0x00, 0x00, 0x00, 0x00, 0x00,
  0x00, 0x00, 0x00, 0x00, 0x00, 0x00, 0x00, 0x00, 0x00, 0x00, 0x00, 0x00,
  0x00, 0x00, 0x00, 0x00, 0x00, 0x00, 0x00, 0x00, 0x00, 0x00, 0x00, 0x00,
  0x00, 0x00, 0x00, 0x00, 0x00, 0x00, 0x00, 0x00, 0x00, 0x00, 0x00, 0x00,
  0x00, 0x00, 0x00, 0x00, 0x00, 0x00, 0x00, 0x00, 0x00, 0x00, 0x00, 0x00,
  0x00, 0x00, 0x00, 0x00, 0x00, 0x00, 0x00, 0x00, 0x00, 0x00, 0x00, 0x00,
  0x00, 0x00, 0x00, 0x00, 0x00, 0x00, 0x00, 0x00, 0x00, 0x00, 0x00, 0x00,
  0x00, 0x00, 0x00, 0x00, 0x00, 0x00, 0x00, 0x00, 0x00, 0x00, 0x00, 0x00,
  0x00, 0x00, 0x00, 0x00, 0x00, 0x00, 0x00, 0x00, 0x00, 0x00, 0x00, 0x00,
  0x00, 0x00, 0x00, 0x00, 0x00, 0x00, 0x00, 0x00, 0x00, 0x00, 0x00, 0x00,
  0x00, 0x00, 0x00, 0x00, 0x00, 0x00, 0x00, 0x00, 0x00, 0x00, 0x00, 0x00,
  0x00, 0x00, 0x00, 0x00, 0x00, 0x00, 0x00, 0x00, 0x00, 0x00, 0x00, 0x00,
  0x00, 0x00, 0x00, 0x00, 0x00, 0x00, 0x00, 0x00, 0x00, 0x00, 0x00, 0x00,
  0x00, 0x00, 0x00, 0x00, 0x00, 0x00, 0x00, 0x00, 0x00, 0x00, 0x00, 0x00,
  0x00, 0x00, 0x00, 0x00, 0x00, 0x00, 0x00, 0x00, 0x00, 0x00, 0x00, 0x00,
  0x00, 0x00, 0x00, 0x00, 0x00, 0x00, 0x00, 0x00, 0x00, 0x00, 0x00, 0x00,
  0x00, 0x00, 0x00, 0x00, 0x00, 0x00, 0x00, 0x00, 0x00, 0x00, 0x00, 0x00,
  0x00, 0x00, 0x00, 0x00, 0x00, 0x00, 0x00, 0x00, 0x00, 0x00, 0x00, 0x00,
  0x00, 0x00, 0x00, 0x00, 0x00, 0x00, 0x00, 0x00, 0x00, 0x00, 0x00, 0x00,
  0x00, 0x00, 0x00, 0x00, 0x00, 0x00, 0x00, 0x00, 0x00, 0x00, 0x00, 0x00,
  0x00, 0x00, 0x00, 0x00, 0x00, 0x00, 0x00, 0x00, 0x00, 0x00, 0x00, 0x00,
  0x00, 0x00, 0x00, 0x00, 0x00, 0x00, 0x00, 0x00, 0x00, 0x00, 0x00, 0x00,
  0x00, 0x00, 0x00, 0x00, 0x00, 0x00, 0x00, 0x00, 0x00, 0x00, 0x00, 0x00,
  0x00, 0x00, 0x00, 0x00, 0x00, 0x00, 0x00, 0x00, 0x00, 0x00, 0x00, 0x00,
  0x00, 0x00, 0x00, 0x00, 0x00, 0x00, 0x00, 0x00, 0x00, 0x00, 0x00, 0x00,
  0x00, 0x00, 0x00, 0x00, 0x00, 0x00, 0x00, 0x00, 0x00, 0x00, 0x00, 0x00,
  0x00, 0x00, 0x00, 0x00, 0x00, 0x00, 0x00, 0x00, 0x00, 0x00, 0x00, 0x00,
  0x00, 0x00, 0x00, 0x00, 0x00, 0x00, 0x00, 0x00, 0x00, 0x00, 0x00, 0x00,
  0x00, 0x00, 0x00, 0x00, 0x00, 0x00, 0x00, 0x00, 0x00, 0x00, 0x00, 0x00,
  0x00, 0x00, 0x00, 0x00, 0x00, 0x00, 0x00, 0x00, 0x00, 0x00, 0x00, 0x00,
  0x00, 0x00, 0x00, 0x00, 0x00, 0x00, 0x00, 0x00, 0x00, 0x00, 0x00, 0x00,
  0x00, 0x00, 0x00, 0x00, 0x00, 0x00, 0x00, 0x00, 0x00, 0x00, 0x00, 0x00,
  0x00, 0x00, 0x00, 0x00, 0x00, 0x00, 0x00, 0x00, 0x00, 0x00, 0x00, 0x00,
  0x00, 0x00, 0x00, 0x00, 0x00, 0x00, 0x00, 0x00, 0x00, 0x00, 0x00, 0x00,
  0x00, 0x00, 0x00, 0x00, 0x00, 0x00, 0x00, 0x00, 0x00, 0x00, 0x00, 0x00,
  0x00, 0x00, 0x00, 0x00, 0x00, 0x00, 0x00, 0x00, 0x00, 0x00, 0x00, 0x00,
  0x00, 0x00, 0x00, 0x00, 0x00, 0x00, 0x00, 0x00, 0x00, 0x00, 0x00, 0x00,
  0x00, 0x00, 0x00, 0x00, 0x00, 0x00, 0x00, 0x00, 0x00, 0x00, 0x00, 0x00,
  0x00, 0x00, 0x00, 0x00, 0x00, 0x00, 0x00, 0x00, 0x00, 0x00, 0x00, 0x00,
  0x00, 0x00, 0x00, 0x00, 0x00, 0x00, 0x00, 0x00, 0x00, 0x00, 0x00, 0x00,
  0x00, 0x00, 0x00, 0x00, 0x00, 0x00, 0x00, 0x00, 0x00, 0x00, 0x00, 0x00,
  0x00, 0x00, 0x00, 0x00, 0x00, 0x00, 0x00, 0x00, 0x00, 0x00, 0x00, 0x00,
  0x00, 0x00, 0x00, 0x00, 0x00, 0x00, 0x00, 0x00, 0x00, 0x00, 0x00, 0x00,
  0x00, 0x00, 0x00, 0x00, 0x00, 0x00, 0x00, 0x00, 0x00, 0x00, 0x00, 0x00,
  0x00, 0x00, 0x00, 0x00, 0x00, 0x00, 0x00, 0x00, 0x00, 0x00, 0x00, 0x00,
  0x00, 0x00, 0x00, 0x00, 0x00, 0x00, 0x00, 0x00, 0x00, 0x00, 0x00, 0x00,
  0x00, 0x00, 0x00, 0x00, 0x00, 0x00, 0x00, 0x00, 0x00, 0x00, 0x00, 0x00,
  0x00, 0x00, 0x00, 0x00, 0x00, 0x00, 0x00, 0x00, 0x00, 0x00, 0x00, 0x00,
  0x00, 0x00, 0x00, 0x00, 0x00, 0x00, 0x00, 0x00, 0x00, 0x00, 0x00, 0x00,
  0x00, 0x00, 0x00, 0x00, 0x00, 0x00, 0x00, 0x00, 0x00, 0x00, 0x00, 0x00,
  0x00, 0x00, 0x00, 0x00, 0x00, 0x00, 0x00, 0x00, 0x00, 0x00, 0x00, 0x00,
  0x00, 0x00, 0x00, 0x00, 0x00, 0x00, 0x00, 0x00, 0x00, 0x00, 0x00, 0x00,
  0x00, 0x00, 0x00, 0x00, 0x00, 0x00, 0x00, 0x00, 0x00, 0x00, 0x00, 0x00,
  0x00, 0x00, 0x00, 0x00, 0x00, 0x00, 0x00, 0x00, 0x00, 0x00, 0x00, 0x00,
  0x00, 0x00, 0x00, 0x00, 0x00, 0x00, 0x00, 0x00, 0x00, 0x00, 0x00, 0x00,
  0x00, 0x00, 0x00, 0x00, 0x00, 0x00, 0x00, 0x00, 0x00, 0x00, 0x00, 0x00,
  0x00, 0x00, 0x00, 0x00, 0x00, 0x00, 0x00, 0x00, 0x00, 0x00, 0x00, 0x00,
  0x00, 0x00, 0x00, 0x00, 0x00, 0x00, 0x00, 0x00, 0x00, 0x00, 0x00, 0x00,
  0x00, 0x00, 0x00, 0x00, 0x00, 0x00, 0x00, 0x00, 0x00, 0x00, 0x00, 0x00,
  0x00, 0x00, 0x00, 0x00, 0x00, 0x00, 0x00, 0x00, 0x00, 0x00, 0x00, 0x00,
  0x00, 0x00, 0x00, 0x00, 0x00, 0x00, 0x00, 0x00, 0x00, 0x00, 0x00, 0x00,
  0x00, 0x00, 0x00, 0x00, 0x00, 0x00, 0x00, 0x00, 0x00, 0x00, 0x00, 0x00,
  0x00, 0x00, 0x00, 0x00, 0x00, 0x00, 0x00, 0x00, 0x00, 0x00, 0x00, 0x00,
  0x00, 0x00, 0x00, 0x00, 0x00, 0x00, 0x00, 0x00, 0x00, 0x00, 0x00, 0x00,
  0x00, 0x00, 0x00, 0x00, 0x00, 0x00, 0x00, 0x00, 0x00, 0x00, 0x00, 0x00,
  0x00, 0x00, 0x00, 0x00, 0x00, 0x00, 0x00, 0x00, 0x00, 0x00, 0x00, 0x00,
  0x00, 0x00, 0x00, 0x00, 0x00, 0x00, 0x00, 0x00, 0x00, 0x00, 0x00, 0x00,
  0x00, 0x00, 0x00, 0x00, 0x00, 0x00, 0x00, 0x00, 0x00, 0x00, 0x00, 0x00,
  0x00, 0x00, 0x00, 0x00, 0x00, 0x00, 0x00, 0x00, 0x00, 0x00, 0x00, 0x00,
  0x00, 0x00, 0x00, 0x00, 0x00, 0x00, 0x00, 0x00, 0x00, 0x00, 0x00, 0x00,
  0x00, 0x00, 0x00, 0x00, 0x00, 0x00, 0x00, 0x00, 0x00, 0x00, 0x00, 0x00,
  0x00, 0x00, 0x00, 0x00, 0x00, 0x00, 0x00, 0x00, 0x00, 0x00, 0x00, 0x00,
  0x00, 0x00, 0x00, 0x00, 0x00, 0x00, 0x00, 0x00, 0x00, 0x00, 0x00, 0x00,
  0x00, 0x00, 0x00, 0x00, 0x00, 0x00, 0x00, 0x00, 0x00, 0x00, 0x00, 0x00,
  0x00, 0x00, 0x00, 0x00, 0x00, 0x00, 0x00, 0x00, 0x00, 0x00, 0x00, 0x00,
  0x00, 0x00, 0x00, 0x00, 0x00, 0x00, 0x00, 0x00, 0x00, 0x00, 0x00, 0x00,
  0x00, 0x00, 0x00, 0x00, 0x00, 0x00, 0x00, 0x00, 0x00, 0x00, 0x00, 0x00,
  0x00, 0x00, 0x00, 0x00, 0x00, 0x00, 0x00, 0x00, 0x00, 0x00, 0x00, 0x00,
  0x00, 0x00, 0x00, 0x00, 0x00, 0x00, 0x00, 0x00, 0x00, 0x00, 0x00, 0x00,
  0x00, 0x00, 0x00, 0x00, 0x00, 0x00, 0x00, 0x00, 0x00, 0x00, 0x00, 0x00,
  0x00, 0x00, 0x00, 0x00, 0x00, 0x00, 0x00, 0x00, 0x00, 0x00, 0x00, 0x00,
  0x00, 0x00, 0x00, 0x00, 0x00, 0x00, 0x00, 0x00, 0x00, 0x00, 0x00, 0x00,
  0x00, 0x00, 0x00, 0x00, 0x00, 0x00, 0x00, 0x00, 0x00, 0x00, 0x00, 0x00,
  0x00, 0x00, 0x00, 0x00, 0x00, 0x00, 0x00, 0x00, 0x00, 0x00, 0x00, 0x00,
  0x00, 0x00, 0x00, 0x00, 0x00, 0x00, 0x00, 0x00, 0x00, 0x00, 0x00, 0x00,
  0x00, 0x00, 0x00, 0x00, 0x00, 0x00, 0x00, 0x00, 0x00, 0x00, 0x00, 0x00,
  0x00, 0x00, 0x00, 0x00, 0x00, 0x00, 0x00, 0x00, 0x00, 0x00, 0x00, 0x00,
  0x00, 0x00, 0x00, 0x00, 0x00, 0x00, 0x00, 0x00, 0x00, 0x00, 0x00, 0x00,
  0x00, 0x00, 0x00, 0x00, 0x00, 0x00, 0x00, 0x00, 0x00, 0x00, 0x00, 0x00,
  0x00, 0x00, 0x00, 0x00, 0x00, 0x00, 0x00, 0x00, 0x00, 0x00, 0x00, 0x00,
  0x00, 0x00, 0x00, 0x00, 0x00, 0x00, 0x00, 0x00, 0x00, 0x00, 0x00, 0x00,
  0x00, 0x00, 0x00, 0x00, 0x00, 0x00, 0x00, 0x00, 0x00, 0x00, 0x00, 0x00,
  0x00, 0x00, 0x00, 0x00, 0x00, 0x00, 0x00, 0x00, 0x00, 0x00, 0x00, 0x00,
  0x00, 0x00, 0x00, 0x00, 0x00, 0x00, 0x00, 0x00, 0x00, 0x00, 0x00, 0x00,
  0x00, 0x00, 0x00, 0x00, 0x00, 0x00, 0x00, 0x00, 0x00, 0x00, 0x00, 0x00,
  0x00, 0x00, 0x00, 0x00, 0x00, 0x00, 0x00, 0x00, 0x00, 0x00, 0x00, 0x00,
  0x00, 0x00, 0x00, 0x00, 0x00, 0x00, 0x00, 0x00, 0x00, 0x00, 0x00, 0x00,
  0x00, 0x00, 0x00, 0x00, 0x00, 0x00, 0x00, 0x00, 0x00, 0x00, 0x00, 0x00,
  0x00, 0x00, 0x00, 0x00, 0x00, 0x00, 0x00, 0x00, 0x00, 0x00, 0x00, 0x00,
  0x00, 0x00, 0x00, 0x00, 0x00, 0x00, 0x00, 0x00, 0x00, 0x00, 0x00, 0x00,
  0x00, 0x00, 0x00, 0x00, 0x00, 0x00, 0x00, 0x00, 0x00, 0x00, 0x00, 0x00,
  0x00, 0x00, 0x00, 0x00, 0x00, 0x00, 0x00, 0x00, 0x00, 0x00, 0x00, 0x00,
  0x00, 0x00, 0x00, 0x00, 0x00, 0x00, 0x00, 0x00, 0x00, 0x00, 0x00, 0x00,
  0x00, 0x00, 0x00, 0x00, 0x00, 0x00, 0x00, 0x00, 0x00, 0x00, 0x00, 0x00,
  0x00, 0x00, 0x00, 0x00, 0x00, 0x00, 0x00, 0x00, 0x00, 0x00, 0x00, 0x00,
  0x00, 0x00, 0x00, 0x00, 0x00, 0x00, 0x00, 0x00, 0x00, 0x00, 0x00, 0x00,
  0x00, 0x00, 0x00, 0x00, 0x00, 0x00, 0x00, 0x00, 0x00, 0x00, 0x00, 0x00,
  0x00, 0x00, 0x00, 0x00, 0x00, 0x00, 0x00, 0x00, 0x00, 0x00, 0x00, 0x00,
  0x00, 0x00, 0x00, 0x00, 0x00, 0x00, 0x00, 0x00, 0x00, 0x00, 0x00, 0x00,
  0x00, 0x00, 0x00, 0x00, 0x00, 0x00, 0x00, 0x00, 0x00, 0x00, 0x00, 0x00,
  0x00, 0x00, 0x00, 0x00, 0x00, 0x00, 0x00, 0x00, 0x00, 0x00, 0x00, 0x00,
  0x00, 0x00, 0x00, 0x00, 0x00, 0x00, 0x00, 0x00, 0x00, 0x00, 0x00, 0x00,
  0x00, 0x00, 0x00, 0x00, 0x00, 0x00, 0x00, 0x00, 0x00, 0x00, 0x00, 0x00,
  0x00, 0x00, 0x00, 0x00, 0x00, 0x00, 0x00, 0x00, 0x00, 0x00, 0x00, 0x00,
  0x00, 0x00, 0x00, 0x00, 0x00, 0x00, 0x00, 0x00, 0x00, 0x00, 0x00, 0x00,
  0x00, 0x00, 0x00, 0x00, 0x00, 0x00, 0x00, 0x00, 0x00, 0x00, 0x00, 0x00,
  0x00, 0x00, 0x00, 0x00, 0x00, 0x00, 0x00, 0x00, 0x00, 0x00, 0x00, 0x00,
  0x00, 0x00, 0x00, 0x00, 0x00, 0x00, 0x00, 0x00, 0x00, 0x00, 0x00, 0x00,
  0x00, 0x00, 0x00, 0x00, 0x00, 0x00, 0x00, 0x00, 0x00, 0x00, 0x00, 0x00,
  0x00, 0x00, 0x00, 0x00, 0x00, 0x00, 0x00, 0x00, 0x00, 0x00, 0x00, 0x00,
  0x00, 0x00, 0x00, 0x00, 0x00, 0x00, 0x00, 0x00, 0x00, 0x00, 0x00, 0x00,
  0x00, 0x00, 0x00, 0x00, 0x00, 0x00, 0x00, 0x00, 0x00, 0x00, 0x00, 0x00,
  0x00, 0x00, 0x00, 0x00, 0x00, 0x00, 0x00, 0x00, 0x00, 0x00, 0x00, 0x00,
  0x00, 0x00, 0x00, 0x00, 0x00, 0x00, 0x00, 0x00, 0x00, 0x00, 0x00, 0x00,
  0x00, 0x00, 0x00, 0x00, 0x00, 0x00, 0x00, 0x00, 0x00, 0x00, 0x00, 0x00,
  0x00, 0x00, 0x00, 0x00, 0x00, 0x00, 0x00, 0x00, 0x00, 0x00, 0x00, 0x00,
  0x00, 0x00, 0x00, 0x00, 0x00, 0x00, 0x00, 0x00, 0x00, 0x00, 0x00, 0x00,
  0x00, 0x00, 0x00, 0x00, 0x00, 0x00, 0x00, 0x00, 0x00, 0x00, 0x00, 0x00,
  0x00, 0x00, 0x00, 0x00, 0x00, 0x00, 0x00, 0x00, 0x00, 0x00, 0x00, 0x00,
  0x00, 0x00, 0x00, 0x00, 0x00, 0x00, 0x00, 0x00, 0x00, 0x00, 0x00, 0x00,
  0x00, 0x00, 0x00, 0x00, 0x00, 0x00, 0x00, 0x00, 0x00, 0x00, 0x00, 0x00,
  0x00, 0x00, 0x00, 0x00, 0x00, 0x00, 0x00, 0x00, 0x00, 0x00, 0x00, 0x00,
  0x00, 0x00, 0x00, 0x00, 0x00, 0x00, 0x00, 0x00, 0x00, 0x00, 0x00, 0x00,
  0x00, 0x00, 0x00, 0x00, 0x00, 0x00, 0x00, 0x00, 0x00, 0x00, 0x00, 0x00,
  0x00, 0x00, 0x00, 0x00, 0x00, 0x00, 0x00, 0x00, 0x00, 0x00, 0x00, 0x00,
  0x00, 0x00, 0x00, 0x00, 0x00, 0x00, 0x00, 0x00, 0x00, 0x00, 0x00, 0x00,
  0x00, 0x00, 0x00, 0x00, 0x00, 0x00, 0x00, 0x00, 0x00, 0x00, 0x00, 0x00,
  0x00, 0x00, 0x00, 0x00, 0x00, 0x00, 0x00, 0x00, 0x00, 0x00, 0x00, 0x00,
  0x00, 0x00, 0x00, 0x00, 0x00, 0x00, 0x00, 0x00, 0x00, 0x00, 0x00, 0x00,
  0x00, 0x00, 0x00, 0x00, 0x00, 0x00, 0x00, 0x00, 0x00, 0x00, 0x00, 0x00,
  0x00, 0x00, 0x00, 0x00, 0x00, 0x00, 0x00, 0x00, 0x00, 0x00, 0x00, 0x00,
  0x00, 0x00, 0x00, 0x00, 0x00, 0x00, 0x00, 0x00, 0x00, 0x00, 0x00, 0x00,
  0x00, 0x00, 0x00, 0x00, 0x00, 0x00, 0x00, 0x00, 0x00, 0x00, 0x00, 0x00,
  0x00, 0x00, 0x00, 0x00, 0xd6, 0x28, 0x02, 0xff, 0xd3, 0x00, 0x10, 0x1c,
  0x00, 0x0d, 0x06, 0x22, 0xff, 0xfc, 0xc1, 0xcf, 0x0c, 0x23, 0xb3, 0x9e,
  0xbb, 0x27, 0xea, 0x10, 0xbd, 0x0d, 0x25, 0x0a, 0xea, 0x0f, 0x24, 0x18,
  0xf2, 0x0f, 0xc2, 0xd0, 0x12, 0x3e, 0x81, 0x8d, 0xc0, 0x1f, 0x00, 0xc6,
  0xbc, 0x0a, 0x13, 0x1c, 0xe2, 0x0d, 0x30, 0x1f, 0x01, 0xfd, 0xcc, 0xb6,
  0xfe, 0x31, 0xa1, 0x90, 0xaa, 0x13, 0x11, 0xc5, 0xd5, 0x02, 0x1d, 0xf8,
  0xeb, 0x02, 0x1d, 0x32, 0xff, 0xfd, 0xdd, 0xd1, 0x03, 0x14, 0xb8, 0x9b,
  0xe0, 0x16, 0x17, 0xc2, 0xe4, 0x04, 0x25, 0x08, 0xf6, 0xfb, 0x1c, 0x33,
  0x0e, 0x0b, 0xf5, 0xcb, 0x19, 0x1a, 0xa4, 0x93, 0xd6, 0x15, 0x0d, 0xcd,
  0xdc, 0x13, 0x1f, 0xf0, 0xfe, 0x0d, 0x0f, 0x3b, 0x18, 0x13, 0xea, 0xb6,
  0x11, 0x0f, 0xad, 0xac, 0xf2, 0x19, 0x06, 0xcc, 0xdf, 0x1d, 0x30, 0x04,
  0xf4, 0x13, 0x1d, 0x1f, 0x22, 0x10, 0xea, 0xce, 0x06, 0x15, 0x8c, 0xb0,
  0x01, 0xf5, 0x22, 0xcc, 0xf0, 0x10, 0x1c, 0x01, 0xf0, 0x16, 0x23, 0x2c,
  0x05, 0x15, 0xf8, 0xbf, 0xfc, 0x2c, 0xa9, 0xa4, 0xe4, 0x21, 0x0e, 0xe3,
  0xcd, 0x08, 0x38, 0x27, 0xe8, 0x07, 0x23, 0x40, 0x0c, 0x07, 0xf8, 0xdb,
  0xfa, 0x0a, 0xa0, 0xb9, 0xf1, 0x20, 0x15, 0xe7, 0xbc, 0x01, 0x2b, 0x2a,
  0xe3, 0xeb, 0x2c, 0x20, 0x16, 0xe2, 0xf1, 0xd5, 0x16, 0x00, 0xae, 0xc5,
  0xec, 0x17, 0x2c, 0xf7, 0xd1, 0x0c, 0x20, 0x12, 0xee, 0x07, 0x34, 0x17,
  0x2d, 0x02, 0xf8, 0xdc, 0x16, 0x04, 0xb1, 0xb3, 0xf2, 0x09, 0x1a, 0xea,
  0xf4, 0x06, 0x07, 0x0b, 0xf5, 0xef, 0x23, 0x27, 0x2e, 0xff, 0xe7, 0xd3,
  0x1f, 0x1a, 0xa0, 0xaa, 0xc9, 0x18, 0x0d, 0xfc, 0xe5, 0x18, 0x18, 0x09,
  0xc1, 0xfc, 0x22, 0x4f, 0x1e, 0xec, 0xf3, 0xd2, 0x02, 0x11, 0x97, 0xa6,
  0xd6, 0x19, 0x0b, 0xf4, 0xd4, 0x0c, 0x23, 0x22, 0xbe, 0x00, 0x27, 0x35,
  0x17, 0xde, 0xe7, 0xe2, 0x16, 0x26, 0xad, 0xb1, 0xdb, 0x01, 0x21, 0xe8,
  0xd0, 0x05, 0x2c, 0x22, 0xc9, 0xec, 0x22, 0x2c, 0xf2, 0xd2, 0xfb, 0xdc,
  0x0e, 0x12, 0xa6, 0xaa, 0xd5, 0x2a, 0x2a, 0xdc, 0xd9, 0x0e, 0x35, 0x37,
  0xbf, 0x13, 0x25, 0x31, 0xff, 0xe4, 0xe6, 0xe1, 0x0d, 0x1c, 0xb8, 0xab,
  0xf0, 0x1f, 0x2d, 0xfd, 0xd3, 0x03, 0x32, 0x21, 0xe0, 0x06, 0x2c, 0x2c,
  0xf8, 0xe3, 0xf4, 0xbf, 0x0b, 0x18, 0xa2, 0xae, 0xcd, 0xf7, 0x0d, 0xe7,
  0xc4, 0x0c, 0x28, 0x23, 0xe5, 0x13, 0x39, 0x34, 0x06, 0xed, 0xf5, 0xb5,
  0x13, 0x0a, 0xc3, 0xa6, 0xde, 0x02, 0x1b, 0xfe, 0xcc, 0x01, 0x19, 0x18,
  0xf7, 0x06, 0x21, 0x33, 0x06, 0xf4, 0x0b, 0xb8, 0x28, 0x16, 0xc0, 0xbd,
  0xd1, 0x13, 0x1c, 0x06, 0xdc, 0x12, 0x1c, 0x2b, 0xee, 0x07, 0x1f, 0x38,
  0x13, 0xf6, 0xf4, 0xbb, 0x1b, 0x13, 0xd3, 0xbc, 0xdb, 0x18, 0x09, 0xfc,
  0xca, 0x0a, 0x17, 0x16, 0xe2, 0x00, 0x1d, 0x28, 0x11, 0xe1, 0xef, 0xc1,
  0x18, 0x08, 0xb6, 0xbe, 0xde, 0xff, 0x19, 0xf5, 0xe3, 0x09, 0x3e, 0x1d,
  0xe8, 0xe9, 0x2a, 0x2d, 0x0a, 0xd5, 0xff, 0xc4, 0xfd, 0x1b, 0xb9, 0xb9,
  0xdc, 0x18, 0x42, 0xf9, 0xea, 0x0d, 0x3b, 0x2b, 0xe2, 0xf6, 0x23, 0x25,
  0x10, 0xdb, 0x01, 0xa1, 0x0a, 0x31, 0xac, 0xb7, 0xd4, 0x14, 0x1b, 0xfc,
  0xe6, 0x0a, 0x37, 0x28, 0xf7, 0x01, 0x1b, 0x2f, 0x25, 0xe4, 0xeb, 0xba,
  0x01, 0x0a, 0xbe, 0xaa, 0xd1, 0xfd, 0x22, 0x00, 0xe1, 0x1c, 0x1b, 0x1d,
  0xf6, 0x01, 0x2d, 0x27, 0x0f, 0xdb, 0xef, 0xad, 0x0b, 0x15, 0xbb, 0xc2,
  0xdd, 0xef, 0x19, 0xe6, 0xf1, 0x15, 0x32, 0x1d, 0xf8, 0x09, 0x17, 0x17,
  0x10, 0xf0, 0xe4, 0xa0, 0x0e, 0x17, 0xbc, 0xbc, 0xc6, 0xf9, 0x18, 0xe4,
  0xea, 0x04, 0x31, 0x23, 0xfe, 0xfd, 0x28, 0x12, 0x02, 0xe5, 0xf0, 0xb5,
  0x07, 0x23, 0xad, 0xaa, 0xc4, 0xdf, 0x0f, 0xe6, 0xdc, 0x09, 0x2b, 0x25,
  0xe7, 0x1f, 0x27, 0x1a, 0x08, 0xf0, 0xfa, 0xb1, 0x01, 0x0e, 0xbe, 0xb1,
  0xb7, 0xdf, 0x1e, 0xda, 0xd5, 0x0b, 0x2b, 0x26, 0xe2, 0xf9, 0x11, 0x0f,
  0x00, 0xfb, 0xe6, 0xc6, 0x03, 0x0d, 0x9b, 0xa5, 0xbc, 0xf1, 0xfe, 0xd5,
  0xc7, 0x04, 0x36, 0x12, 0xcd, 0xf7, 0x11, 0x04, 0xfd, 0xfb, 0xc7, 0xa6,
  0x06, 0xf9, 0x87, 0x98, 0x25, 0x24, 0x36, 0xe0, 0x2b, 0x04, 0x40, 0x1e,
  0x38, 0xef, 0x26, 0x0e, 0x3b, 0xfe, 0xf6, 0xeb, 0x33, 0xf6, 0x9b, 0xd5,
  0x00, 0x00, 0x00, 0x00, 0x00, 0x00, 0x00, 0x00, 0x00, 0x00, 0x00, 0x00,
  0x00, 0x00, 0x00, 0x00, 0x00, 0x00, 0x00, 0x00, 0x00, 0x00, 0x00, 0x00,
  0x00, 0x00, 0x00, 0x00, 0x00, 0x00, 0x00, 0x00, 0x00, 0x00, 0x00, 0x00,
  0x00, 0x00, 0x00, 0x00, 0x00, 0x00, 0x00, 0x00, 0x00, 0x00, 0x00, 0x00,
  0x00, 0x00, 0x00, 0x00, 0x00, 0x00, 0x00, 0x00, 0x00, 0x00, 0x00, 0x00,
  0x00, 0x00, 0x00, 0x00, 0x00, 0x00, 0x00, 0x00, 0x00, 0x00, 0x00, 0x00,
  0x00, 0x00, 0x00, 0x00, 0x00, 0x00, 0x00, 0x00, 0x00, 0x00, 0x00, 0x00,
  0x00, 0x00, 0x00, 0x00, 0x00, 0x00, 0x00, 0x00, 0x00, 0x00, 0x00, 0x00,
  0x00, 0x00, 0x00, 0x00, 0x00, 0x00, 0x00, 0x00, 0x00, 0x00, 0x00, 0x00,
  0x00, 0x00, 0x00, 0x00, 0x00, 0x00, 0x00, 0x00, 0x00, 0x00, 0x00, 0x00,
  0x00, 0x00, 0x00, 0x00, 0x00, 0x00, 0x00, 0x00, 0x00, 0x00, 0x00, 0x00,
  0x00, 0x00, 0x00, 0x00, 0x00, 0x00, 0x00, 0x00, 0x00, 0x00, 0x00, 0x00,
  0x00, 0x00, 0x00, 0x00, 0x00, 0x00, 0x00, 0x00, 0x00, 0x00, 0x00, 0x00,
  0x00, 0x00, 0x00, 0x00, 0x00, 0x00, 0x00, 0x00, 0x00, 0x00, 0x00, 0x00,
  0x00, 0x00, 0x00, 0x00, 0x00, 0x00, 0x00, 0x00, 0x00, 0x00, 0x00, 0x00,
  0x00, 0x00, 0x00, 0x00, 0x00, 0x00, 0x00, 0x00, 0x00, 0x00, 0x00, 0x00,
  0x00, 0x00, 0x00, 0x00, 0x00, 0x00, 0x00, 0x00, 0x00, 0x00, 0x00, 0x00,
  0x00, 0x00, 0x00, 0x00, 0x00, 0x00, 0x00, 0x00, 0x00, 0x00, 0x00, 0x00,
  0x00, 0x00, 0x00, 0x00, 0x00, 0x00, 0x00, 0x00, 0x00, 0x00, 0x00, 0x00,
  0x00, 0x00, 0x00, 0x00, 0x00, 0x00, 0x00, 0x00, 0x00, 0x00, 0x00, 0x00,
  0x00, 0x00, 0x00, 0x00, 0x00, 0x00, 0x00, 0x00, 0x00, 0x00, 0x00, 0x00,
  0x00, 0x00, 0x00, 0x00, 0x00, 0x00, 0x00, 0x00, 0x00, 0x00, 0x00, 0x00,
  0x00, 0x00, 0x00, 0x00, 0x00, 0x00, 0x00, 0x00, 0x00, 0x00, 0x00, 0x00,
  0x00, 0x00, 0x00, 0x00, 0x00, 0x00, 0x00, 0x00, 0x00, 0x00, 0x00, 0x00,
  0x00, 0x00, 0x00, 0x00, 0x00, 0x00, 0x00, 0x00, 0x00, 0x00, 0x00, 0x00,
  0x00, 0x00, 0x00, 0x00, 0x00, 0x00, 0x00, 0x00, 0x00, 0x00, 0x00, 0x00,
  0x00, 0x00, 0x00, 0x00, 0x00, 0x00, 0x00, 0x00, 0x00, 0x00, 0x00, 0x00,
  0x00, 0x00, 0x00, 0x00, 0x00, 0x00, 0x00, 0x00, 0x00, 0x00, 0x00, 0x00,
  0x00, 0x00, 0x00, 0x00, 0x00, 0x00, 0x00, 0x00, 0x00, 0x00, 0x00, 0x00,
  0x00, 0x00, 0x00, 0x00, 0x00, 0x00, 0x00, 0x00, 0x00, 0x00, 0x00, 0x00,
  0x00, 0x00, 0x00, 0x00, 0x00, 0x00, 0x00, 0x00, 0x00, 0x00, 0x00, 0x00,
  0x00, 0x00, 0x00, 0x00, 0x00, 0x00, 0x00, 0x00, 0x00, 0x00, 0x00, 0x00,
  0x00, 0x00, 0x00, 0x00, 0x00, 0x00, 0x00, 0x00, 0x00, 0x00, 0x00, 0x00,
  0x00, 0x00, 0x00, 0x00, 0x00, 0x00, 0x00, 0x00, 0x00, 0x00, 0x00, 0x00,
  0x00, 0x00, 0x00, 0x00, 0x00, 0x00, 0x00, 0x00, 0x00, 0x00, 0x00, 0x00,
  0x00, 0x00, 0x00, 0x00, 0x00, 0x00, 0x00, 0x00, 0x00, 0x00, 0x00, 0x00,
  0x00, 0x00, 0x00, 0x00, 0x00, 0x00, 0x00, 0x00, 0x00, 0x00, 0x00, 0x00,
  0x00, 0x00, 0x00, 0x00, 0x00, 0x00, 0x00, 0x00, 0x00, 0x00, 0x00, 0x00,
